{"<|endoftext|>":0,"!":1,"\"":2,"#":3,"$":4,"%":5,"&":6,"'":7,"(":8,")":9,"*":10,"+":11,",":12,"-":13,".":14,"/":15,"0":16,"1":17,"2":18,"3":19,"4":20,"5":21,"6":22,"7":23,"8":24,"9":25,":":26,";":27,"<":28,"=":29,">":30,"?":31,"@":32,"A":33,"B":34,"C":35,"D":36,"E":37,"F":38,"G":39,"H":40,"I":41,"J":42,"K":43,"L":44,"M":45,"N":46,"O":47,"P":48,"Q":49,"R":50,"S":51,"T":52,"U":53,"V":54,"W":55,"X":56,"Y":57,"Z":58,"[":59,"\\":60,"]":61,"^":62,"_":63,"`":64,"a":65,"b":66,"c":67,"d":68,"e":69,"f":70,"g":71,"h":72,"i":73,"j":74,"k":75,"l":76,"m":77,"n":78,"o":79,"p":80,"q":81,"r":82,"s":83,"t":84,"u":85,"v":86,"w":87,"x":88,"y":89,"z":90,"{":91,"|":92,"}":93,"~":94,"¡":95,"¢":96,"£":97,"¤":98,"¥":99,"¦":100,"§":101,"¨":102,"©":103,"ª":104,"«":105,"¬":106,"®":107,"¯":108,"°":109,"±":110,"²":111,"³":112,"´":113,"µ":114,"¶":115,"·":116,"¸":117,"¹":118,"º":119,"»":120,"¼":121,"½":122,"¾":123,"¿":124,"À":125,"Á":126,"Â":127,"Ã":128,"Ä":129,"Å":130,"Æ":131,"Ç":132,"È":133,"É":134,"Ê":135,"Ë":136,"Ì":137,"Í":138,"Î":139,"Ï":140,"Ð":141,"Ñ":142,"Ò":143,"Ó":144,"Ô":145,"Õ":146,"Ö":147,"×":148,"Ø":149,"Ù":150,"Ú":151,"Û":152,"Ü":153,"Ý":154,"Þ":155,"ß":156,"à":157,"á":158,"â":159,"ã":160,"ä":161,"å":162,"æ":163,"ç":164,"è":165,"é":166,"ê":167,"ë":168,"ì":169,"í":170,"î":171,"ï":172,"ð":173,"ñ":174,"ò":175,"ó":176,"ô":177,"õ":178,"ö":179,"÷":180,"ø":181,"ù":182,"ú":183,"û":184,"ü":185,"ý":186,"þ":187,"ÿ":188,"Ā":189,"ā":190,"Ă":191,"ă":192,"Ą":193,"ą":194,"Ć":195,"ć":196,"Ĉ":197,"ĉ":198,"Ċ":199,"ċ":200,"Č":201,"č":202,"Ď":203,"ď":204,"Đ":205,"đ":206,"Ē":207,"ē":208,"Ĕ":209,"ĕ":210,"Ė":211,"ė":212,"Ę":213,"ę":214,"Ě":215,"ě":216,"Ĝ":217,"ĝ":218,"Ğ":219,"ğ":220,"Ġ":221,"ġ":222,"Ģ":223,"ģ":224,"Ĥ":225,"ĥ":226,"Ħ":227,"ħ":228,"Ĩ":229,"ĩ":230,"Ī":231,"ī":232,"Ĭ":233,"ĭ":234,"Į":235,"į":236,"İ":237,"ı":238,"Ĳ":239,"ĳ":240,"Ĵ":241,"ĵ":242,"Ķ":243,"ķ":244,"ĸ":245,"Ĺ":246,"ĺ":247,"Ļ":248,"ļ":249,"Ľ":250,"ľ":251,"Ŀ":252,"ŀ":253,"Ł":254,"ł":255,"Ń":256,"oS":257,"in":258,"Ġt":259,"EoS":260,"SoS":261,"Ġ<":262,"an":263,"ing":264,"Ġs":265,"Ġw":266,"Ġb":267,"he":268,"Ġo":269,"Ġin":270,"it":271,"Ġthe":272,"re":273,"Ġp":274,"Ġd":275,"er":276,"ro":277,"Ġc":278,"ar":279,"is":280,"at":281,"le":282,"Ġm":283,"and":284,"Ġg":285,"Ġdo":286,"Ġon":287,"un":288,"Ġf":289,"la":290,"al":291,"Ġh":292,"ck":293,"ir":294,"Ġdog":295,"Ġa":296,"Ġis":297,"Ġand":298,"Ġr":299,"Ġwit":300,"Ġwith":301,"Ġof":302,"Ġman":303,"ld":304,"en":305,"Ġst":306,"lo":307,"Ġwh":308,"es":309,"id":310,"om":311,"all":312,"Ġbo":313,"wo":314,"Ġto":315,"et":316,"Ġtwo":317,"as":318,"lay":319,"ear":320,"wn":321,"or":322,"on":323,"Ġplay":324,"Ġj":325,"Ġth":326,"Ġl":327,"Ġboy":328,"irl":329,"Ġy":330,"Ġgirl":331,"ite":332,"Ġwom":333,"ed":334,"her":335,"oun":336,"ut":337,"ch":338,"Ġwhite":339,"Ġsh":340,"Ġare":341,"um":342,"lack":343,"Ġblack":344,"red":345,"Ġwat":346,"gh":347,"Ġch":348,"Ġan":349,"ple":350,"Ġrun":351,"rou":352,"Ġwoman":353,"ers":354,"ild":355,"Ġat":356,"itt":357,"ur":358,"Ġwear":359,"Ġstand":360,"king":361,"ow":362,"irt":363,"ge":364,"ack":365,"Ġwearing":366,"Ġn":367,"Ġpe":368,"ump":369,"Ġwater":370,"ot":371,"ide":372,"Ġjump":373,"Ġpeo":374,"Ġpeople":375,"ard":376,"ic":377,"Ġred":378,"ss":379,"Ġchild":380,"ver":381,"Ġyoun":382,"Ġyoung":383,"Ġro":384,"rown":385,"Ġbe":386,"Ġsn":387,"am":388,"und":389,"Ġgr":390,"Ġbrown":391,"im":392,"Ġho":393,"ue":394,"Ġsnow":395,"il":396,"Ġco":397,"ile":398,"Ġbl":399,"Ġfro":400,"Ġhis":401,"ce":402,"Ġlo":403,"el":404,"ad":405,"Ġsm":406,"Ġblue":407,"ass":408,"st":409,"ning":410,"Ġout":411,"bo":412,"Ġdogs":413,"Ġgrass":414,"Ġsk":415,"round":416,"rough":417,"Ġpo":418,"Ġwal":419,"ri":420,"Ġrunning":421,"Ġshirt":422,"Ġthrough":423,"Ġplaying":424,"Ġwhile":425,"low":426,"ree":427,"Ġdown":428,"Ġfi":429,"Ġhold":430,"ain":431,"up":432,"Ġball":433,"ke":434,"Ġstanding":435,"its":436,"Ġlitt":437,"Ġlittle":438,"ach":439,"Ġsw":440,"ve":441,"Ġgre":442,"Ġover":443,"Ġrid":444,"board":445,"Ġfo":446,"Ġe":447,"ts":448,"Ġbi":449,"Ġpers":450,"Ġperson":451,"Ġloo":452,"Ġle":453,"Ġhe":454,"nt":455,"ks":456,"Ġjumping":457,"to":458,"Ġup":459,"itting":460,"Ġtr":461,"Ġk":462,"Ġthree":463,"Ġfront":464,"Ġback":465,"Ġsitting":466,"Ġcar":467,"ball":468,"Ġra":469,"Ġsmall":470,"Ġholding":471,"eld":472,"Ġfield":473,"Ġmo":474,"Ġrock":475,"Ġlar":476,"ul":477,"Ġby":478,"ate":479,"Ġgreen":480,"se":481,"ap":482,"ay":483,"Ġlarge":484,"Ġyel":485,"Ġgrou":486,"Ġgroup":487,"Ġone":488,"Ġher":489,"ren":490,"Ġyellow":491,"side":492,"Ġcl":493,"Ġnear":494,"Ġstre":495,"Ġair":496,"Ġwalking":497,"Ġsom":498,"Ġchildren":499,"Ġsp":500,"air":501,"Ġas":502,"Ġmen":503,"ount":504,"Ġbu":505,"Ġla":506,"yc":507,"ol":508,"ght":509,"Ġinto":510,"Ġfor":511,"ress":512,"od":513,"Ġbeach":514,"uth":515,"ick":516,"Ġmouth":517,"ountain":518,"Ġre":519,"ind":520,"Ġskate":521,"if":522,"other":523,"Ġdress":524,"Ġjumps":525,"ink":526,"ark":527,"Ġne":528,"Ġstreet":529,"hes":530,"imb":531,"ther":532,"hing":533,"Ġanother":534,"ying":535,"Ġother":536,"Ġits":537,"Ġclimb":538,"row":539,"Ġskateboard":540,"ab":541,"Ġruns":542,"Ġfrom":543,"Ġriding":544,"ran":545,"Ġstands":546,"Ġbike":547,"Ġsur":548,"ground":549,"Ġcam":550,"Ġoff":551,"Ġgirls":552,"Ġwa":553,"Ġmountain":554,"ycle":555,"orm":556,"Ġbas":557,"Ġso":558,"acket":559,"Ġsome":560,"Ġoutside":561,"xt":562,"Ġhat":563,"ent":564,"Ġswim":565,"range":566,"Ġhand":567,"Ġnext":568,"Ġjacket":569,"Ġorange":570,"ross":571,"Ġlooking":572,"Ġpink":573,"ood":574,"Ġplayer":575,"era":576,"ct":577,"Ġside":578,"Ġgo":579,"Ġse":580,"rick":581,"Ġcat":582,"ill":583,"cer":584,"ure":585,"Ġal":586,"ves":587,"Ġsho":588,"Ġtheir":589,"Ġpool":590,"Ġwood":591,"Ġcamera":592,"us":593,"Ġfa":594,"ak":595,"Ġboys":596,"uit":597,"Ġwomen":598,"Ġaround":599,"Ġswing":600,"ong":601,"Ġsurf":602,"ight":603,"Ġdirt":604,"ion":605,"ig":606,"iling":607,"Ġbeh":608,"Ġbehind":609,"Ġtoy":610,"one":611,"Ġfl":612,"ting":613,"Ġhead":614,"rowd":615,"ll":616,"ches":617,"Ġcrowd":618,"Ġsand":619,"ep":620,"Ġbackground":621,"Ġar":622,"Ġsoc":623,"Ġbuild":624,"Ġsl":625,"Ġsun":626,"Ġclo":627,"lass":628,"Ġstick":629,"les":630,"Ġbuilding":631,"Ġsoccer":632,"Ġsits":633,"Ġwall":634,"Ġbic":635,"ag":636,"ip":637,"Ġdressed":638,"Ġalong":639,"Ġhas":640,"Ġte":641,"Ġpark":642,"Ġfoot":643,"Ġwalks":644,"dy":645,"ist":646,"ching":647,"Ġkid":648,"cross":649,"cing":650,"ture":651,"Ġun":652,"Ġhi":653,"Ġplays":654,"ter":655,"Ġpic":656,"ie":657,"Ġlooks":658,"Ġhel":659,"Ġhill":660,"ket":661,"Ġtop":662,"aking":663,"Ġdr":664,"Ġfour":665,"Ġblo":666,"Ġclimbing":667,"Ġfootball":668,"ward":669,"Ġmot":670,"ine":671,"ud":672,"Ġface":673,"alk":674,"lasses":675,"Ġtrick":676,"Ġpicture":677,"Ġswimm":678,"ly":679,"Ġtan":680,"Ġben":681,"Ġacross":682,"be":683,"em":684,"Ġgrassy":685,"Ġbicycle":686,"Ġholds":687,"Ġten":688,"ng":689,"amp":690,"cean":691,"Ġocean":692,"Ġsmiling":693,"Ġsc":694,"ame":695,"orts":696,"Ġcarr":697,"Ġrides":698,"Ġpos":699,"ath":700,"Ġski":701,"Ġcolo":702,"ling":703,"Ġswimming":704,"way":705,"led":706,"Ġv":707,"do":708,"Ġhim":709,"Ġbasket":710,"get":711,"Ġdoing":712,"Ġcarrying":713,"Ġhair":714,"Ġbab":715,"Ġeach":716,"nis":717,"Ġtennis":718,"walk":719,"Ġtree":720,"Ġmid":721,"ving":722,"pp":723,"Ġmotor":724,"Ġsnowy":725,"Ġarm":726,"Ġbaby":727,"met":728,"pe":729,"Ġfen":730,"Ġfr":731,"Ġtoget":732,"Ġtogether":733,"dle":734,"form":735,"Ġhelmet":736,"ors":737,"Ġ'":738,"Ġit":739,"Ġsnowboard":740,"nd":741,"Ġthat":742,"Ġold":743,"Ġunif":744,"ans":745,"Ġbasketball":746,"Ġpar":747,"Ġarea":748,"Ġroad":749,"Ġuniform":750,"Ġblond":751,"Ġtoward":752,"Ġper":753,"ey":754,"Ġrace":755,"rest":756,"Ġabo":757,"ity":758,"Ġgrey":759,"Ġleap":760,"Ġshorts":761,"sh":762,"Ġpur":763,"Ġsidewalk":764,"Ġbench":765,"vered":766,"ug":767,"Ġbik":768,"Ġcatch":769,"Ġsit":770,"Ġgame":771,"Ġob":772,"Ġcou":773,"Ġwalk":774,"Ġperform":775,"Ġund":776,"Ġground":777,"ging":778,"ies":779,"ating":780,"Ġflo":781,"ice":782,"able":783,"Ġunder":784,"qu":785,"Ġmotorc":786,"ff":787,"Ġbase":788,"Ġcon":789,"ething":790,"Ġsomething":791,"Ġgu":792,"Ġfris":793,"Ġchas":794,"Ġfrisbe":795,"Ġget":796,"Ġkids":797,"Ġfence":798,"age":799,"Ġbeing":800,"Ġpath":801,"Ġfrisbee":802,"Ġcom":803,"te":804,"Ġlake":805,"ian":806,"Ġramp":807,"Ġtrack":808,"ail":809,"gs":810,"ign":811,"ne":812,"Ġcity":813,"Ġboat":814,"veral":815,"are":816,"Ġbr":817,"Ġwave":818,"Ġlong":819,"Ġskateboarder":820,"akes":821,"ants":822,"Ġseveral":823,"hed":824,"Ġoutdo":825,"iff":826,"Ġpurple":827,"Ġje":828,"ped":829,"ub":830,"Ġsign":831,"Ġdan":832,"Ġad":833,"Ġcovered":834,"ph":835,"Ġclot":836,"Ġbar":837,"Ġthere":838,"Ġhigh":839,"Ġtre":840,"Ġslide":841,"Ġshe":842,"ful":843,"ler":844,"Ġcoat":845,"Ġsmile":846,"Ġbaseball":847,"ird":848,"ac":849,"Ġthem":850,"Ġstri":851,"Ġbig":852,"Ġposing":853,"ast":854,"Ġche":855,"Ġri":856,"Ġguy":857,"Ġplayers":858,"Ġdark":859,"Ġha":860,"Ġhor":861,"ire":862,"Ġread":863,"end":864,"Ġwooden":865,"Ġde":866,"eat":867,"glasses":868,"ull":869,"Ġmotorcycle":870,"Ġsunglasses":871,"Ġwatches":872,"Ġspla":873,"Ġlay":874,"Ġbat":875,"Ġph":876,"Ġwet":877,"ft":878,"umb":879,"Ġlook":880,"Ġteam":881,"Ġcolor":882,"Ġpla":883,"Ġatt":884,"Ġtrees":885,"Ġtable":886,"Ġhan":887,"ycl":888,"Ġbal":889,"Ġpants":890,"ries":891,"Ġflow":892,"Ġrocks":893,"ale":894,"ces":895,"Ġcouple":896,"by":897,"Ġride":898,"Ġcoll":899,"op":900,"Ġaf":901,"Ġwatching":902,"Ġrope":903,"Ġbes":904,"Ġag":905,"av":906,"Ġdri":907,"uck":908,"Ġsuit":909,"Ġhorse":910,"Ġarms":911,"Ġtowards":912,"shirt":913,"Ġbeside":914,"Ġam":915,"Ġhands":916,"Ġbird":917,"Ġrocky":918,"aw":919,"Ġcour":920,"Ġriver":921,"Ġcap":922,"pen":923,"iting":924,"ect":925,"Ġbus":926,"use":927,"Ġwatch":928,"Ġsnowboarder":929,"Ġbag":930,"Ġthrow":931,"ant":932,"Ġstr":933,"bb":934,"Ġdoes":935,"Ġkick":936,"dd":937,"Ġfla":938,"Ġroll":939,"Ġsplas":940,"Ġwhe":941,"Ġadul":942,"Ġoutf":943,"Ġabove":944,"Ġracing":945,"Ġolder":946,"ckey":947,"Ġsweat":948,"Ġjeans":949,"Ġcolorful":950,"Ġlady":951,"Ġice":952,"Ġwho":953,"ake":954,"Ġopen":955,"Ġbot":956,"ment":957,"stum":958,"Ġstriped":959,"Ġcostum":960,"Ġpose":961,"Ġslid":962,"ry":963,"Ġfight":964,"Ġset":965,"Ġwind":966,"pack":967,"Ġonto":968,"Ġwoods":969,"Ġcollar":970,"ired":971,"Ġpl":972,"Ġbackpack":973,"Ġsurround":974,"Ġmidair":975,"oto":976,"Ġphoto":977,"ted":978,"Ġtal":979,"Ġglasses":980,"Ġcliff":981,"Ġtaking":982,"Ġagain":983,"ore":984,"Ġlea":985,"Ġmountains":986,"Ġleaps":987,"ok":988,"uring":989,"Ġspr":990,"Ġasian":991,"Ġplayground":992,"Ġyard":993,"Ġagainst":994,"Ġbody":995,"Ġchair":996,"Ġclimbs":997,"Ġblonde":998,"Ġcross":999,"Ġpain":1000,"Ġcan":1001,"Ġfis":1002,"ess":1003,"ash":1004,"Ġmud":1005,"Ġstep":1006,"Ġno":1007,"Ġperforming":1008,"man":1009,"Ġfountain":1010,"Ġboard":1011,"Ġhockey":1012,"Ġshore":1013,"yclist":1014,"Ġsmiles":1015,"Ġlight":1016,"Ġwrest":1017,"oking":1018,"Ġlaying":1019,"Ġafter":1020,"Ġsurfer":1021,"ugh":1022,"Ġguit":1023,"ound":1024,"Ġguitar":1025,"Ġmany":1026,"Ġrider":1027,"Ġtodd":1028,"Ġrest":1029,"Ġchasing":1030,"Ġswims":1031,"phone":1032,"ort":1033,"very":1034,"Ġfire":1035,"upp":1036,"ather":1037,"Ġfe":1038,"Ġsky":1039,"Ġskier":1040,"Ġbrick":1041,"ation":1042,"Ġsurrounded":1043,"Ġstair":1044,"Ġnight":1045,"Ġoutdoors":1046,"co":1047,"Ġinside":1048,"Ġduring":1049,"ty":1050,"ust":1051,"Ġtur":1052,"Ġpro":1053,"Ġgold":1054,"Ġflying":1055,"Ġed":1056,"pet":1057,"Ġli":1058,"ade":1059,"Ġforest":1060,"Ġothers":1061,"Ġbiker":1062,"Ġtakes":1063,"Ġcolored":1064,"Ġedge":1065,"Ġbed":1066,"Ġaway":1067,"Ġtoddler":1068,"right":1069,"Ġwheel":1070,"ell":1071,"uff":1072,"Ġkay":1073,"Ġbrid":1074,"Ġhanging":1075,"ject":1076,"ican":1077,"Ġmiddle":1078,"Ġvery":1079,"Ġbright":1080,"Ġtrying":1081,"Ġfall":1082,"Ġshow":1083,"Ġgray":1084,"ner":1085,"Ġsomeone":1086,"Ġdrin":1087,"ance":1088,"Ġpre":1089,"rap":1090,"Ġpupp":1091,"less":1092,"Ġsurfboard":1093,"Ġoutfit":1094,"Ġpast":1095,"Ġcr":1096,"Ġpoin":1097,"Ġfive":1098,"Ġpad":1099,"lder":1100,"Ġpole":1101,"Ġlaugh":1102,"Ġteen":1103,"Ġen":1104,"Ġbear":1105,"Ġpul":1106,"Ġtrail":1107,"pping":1108,"Ġobject":1109,"Ġfloor":1110,"Ġtalking":1111,"Ġsteps":1112,"Ġmaking":1113,"Ġtrain":1114,"Ġwhil":1115,"Ġnearby":1116,"ace":1117,"Ġabout":1118,"Ġwindow":1119,"Ġwhilst":1120,"Ġsled":1121,"Ġtall":1122,"Ġlif":1123,"Ġgoing":1124,"Ġflowers":1125,"os":1126,"ings":1127,"Ġline":1128,"we":1129,"Ġcow":1130,"allow":1131,"Ġall":1132,"Ġear":1133,"Ġwin":1134,"Ġhu":1135,"Ġswinging":1136,"Ġhaired":1137,"ding":1138,"Ġmar":1139,"Ġeating":1140,"Ġdancing":1141,"ps":1142,"imal":1143,"Ġdi":1144,"Ġday":1145,"Ġjers":1146,"Ġthis":1147,"ily":1148,"Ġwaves":1149,"Ġposes":1150,"Ġpus":1151,"Ġleaves":1152,"Ġbridge":1153,"aff":1154,"Ġanimal":1155,"Ġflip":1156,"Ġjersey":1157,"Ġbott":1158,"ated":1159,"Ġleaping":1160,"ny":1161,"Ġdist":1162,"Ġey":1163,"Ġoutdoor":1164,"Ġex":1165,"emp":1166,"Ġclothes":1167,"aper":1168,"Ġcourse":1169,"Ġshallow":1170,"stac":1171,"Ġlegs":1172,"Ġgoal":1173,"Ġobstac":1174,"gg":1175,"Ġblow":1176,"Ġhouse":1177,"rel":1178,"Ġstar":1179,"Ġroom":1180,"Ġrail":1181,"Ġattemp":1182,"Ġcostume":1183,"Ġfighting":1184,"ti":1185,"Ġpon":1186,"stic":1187,"Ġleash":1188,"Ġplastic":1189,"zz":1190,"Ġsle":1191,"Ġclothing":1192,"Ġstone":1193,"Ġem":1194,"ction":1195,"Ġsplashing":1196,"hound":1197,"Ġcur":1198,"iss":1199,"Ġstore":1200,"Ġcarries":1201,"Ġhik":1202,"ched":1203,"Ġbet":1204,"ats":1205,"Ġmet":1206,"Ġlean":1207,"Ġbubb":1208,"cre":1209,"Ġgreyhound":1210,"Ġtire":1211,"Ġcor":1212,"Ġbox":1213,"Ġready":1214,"ween":1215,"Ġobstacle":1216,"Ġbetween":1217,"Ġtrun":1218,"Ġrailing":1219,"Ġclimber":1220,"Ġclose":1221,"Ġgetting":1222,"oot":1223,"arf":1224,"ley":1225,"Ġland":1226,"Ġspe":1227,"Ġcatches":1228,"Ġadult":1229,"Ġsliding":1230,"bor":1231,"Ġoverlo":1232,"Ġstream":1233,"Ġves":1234,"Ġthey":1235,"Ġnumb":1236,"Ġskateboarding":1237,"Ġswings":1238,"Ġroller":1239,"Ġband":1240,"Ġdis":1241,"Ġmat":1242,"Ġlawn":1243,"Ġbathing":1244,"Ġkayak":1245,"Ġwinter":1246,"suit":1247,"Ġfem":1248,"Ġshirts":1249,"Ġconcre":1250,"Ġsweater":1251,"Ġconcrete":1252,"Ġdes":1253,"erman":1254,"Ġtong":1255,"oline":1256,"Ġret":1257,"Ġwaiting":1258,"ampoline":1259,"ots":1260,"Ġtrampoline":1261,"Ġsi":1262,"Ġwor":1263,"Ġor":1264,"Ġpol":1265,"Ġcompet":1266,"Ġve":1267,"ates":1268,"Ġgear":1269,"Ġhug":1270,"Ġwears":1271,"Ġuniforms":1272,"ping":1273,"Ġmale":1274,"str":1275,"uddle":1276,"Ġskiing":1277,"Ġmetal":1278,"uzz":1279,"Ġmas":1280,"iew":1281,"Ġturn":1282,"Ġnumber":1283,"set":1284,"Ġsandy":1285,"Ġgolden":1286,"Ġtongue":1287,"Ġhar":1288,"Ġjo":1289,"Ġpulling":1290,"sc":1291,"Ġlot":1292,"Ġfol":1293,"Ġupside":1294,"Ġkiss":1295,"Ġcatching":1296,"Ġthrowing":1297,"Ġstairs":1298,"Ġbeard":1299,"ness":1300,"Ġsil":1301,"Ġdrink":1302,"Ġdistance":1303,"grap":1304,"hic":1305,"Ġtries":1306,"ater":1307,"Ġmakes":1308,"Ġgets":1309,"Ġfur":1310,"Ġrow":1311,"Ġadults":1312,"Ġfishing":1313,"Ġphotograp":1314,"iv":1315,"tic":1316,"Ġste":1317,"Ġshirtless":1318,"Ġcart":1319,"Ġflies":1320,"Ġoverlooking":1321,"Ġcell":1322,"Ġskirt":1323,"Ġfemale":1324,"Ġus":1325,"Ġsub":1326,"Ġapp":1327,"Ġkne":1328,"Ġcouch":1329,"ive":1330,"Ġpass":1331,"Ġwooded":1332,"Ġtricks":1333,"Ġvehic":1334,"Ġmus":1335,"Ġdock":1336,"Ġhur":1337,"Ġhors":1338,"Ġstun":1339,"els":1340,"Ġbusy":1341,"Ġdrinking":1342,"Ġpuppy":1343,"Ġsqu":1344,"Ġopp":1345,"Ġlying":1346,"ading":1347,"Ġchases":1348,"Ġhorses":1349,"fl":1350,"ier":1351,"ra":1352,"Ġumb":1353,"Ġflag":1354,"rella":1355,"Ġvest":1356,"Ġumbrella":1357,"Ġbre":1358,"Ġpit":1359,"erican":1360,"Ġtruck":1361,"Ġperforms":1362,"Ġprep":1363,"Ġharness":1364,"Ġcellphone":1365,"Ġdoor":1366,"ents":1367,"Ġwaterf":1368,"Ġrac":1369,"Ġsurfing":1370,"Ġview":1371,"Ġreading":1372,"Ġpadd":1373,"Ġlaughing":1374,"Ġpond":1375,"io":1376,"uct":1377,"ins":1378,"Ġput":1379,"Ġright":1380,"Ġleaning":1381,"Ġtrunks":1382,"jo":1383,"Ġpa":1384,"Ġmuzz":1385,"ons":1386,"Ġshopping":1387,"Ġsunset":1388,"Ġspray":1389,"Ġhuge":1390,"Ġeyes":1391,"aur":1392,"Ġslo":1393,"Ġpuddle":1394,"Ġca":1395,"Ġrain":1396,"Ġbow":1397,"Ġneck":1398,"ement":1399,"Ġslides":1400,"Ġcano":1401,"Ġcig":1402,"Ġmark":1403,"Ġfood":1404,"Ġequ":1405,"ial":1406,"ition":1407,"Ġmake":1408,"Ġelder":1409,"Ġshoes":1410,"Ġnose":1411,"Ġstunt":1412,"Ġwaterfall":1413,"ho":1414,"sel":1415,"Ġtu":1416,"Ġpaper":1417,"alle":1418,"Ġleft":1419,"Ġrais":1420,"Ġbuck":1421,"Ġhats":1422,"Ġscarf":1423,"Ġenjo":1424,"Ġlife":1425,"Ġfollow":1426,"ium":1427,"ige":1428,"ists":1429,"Ġrug":1430,"Ġhood":1431,"Ġcoming":1432,"Ġamerican":1433,"Ġbubbles":1434,"Ġbun":1435,"Ġgraff":1436,"Ġtent":1437,"iti":1438,"Ġfam":1439,"Ġwaters":1440,"Ġhoop":1441,"Ġblock":1442,"Ġrestaur":1443,"Ġfeet":1444,"Ġretri":1445,"line":1446,"nel":1447,"uits":1448,"Ġtack":1449,"est":1450,"Ġbook":1451,"Ġform":1452,"Ġbikes":1453,"Ġchew":1454,"Ġequip":1455,"Ġfamily":1456,"bla":1457,"ym":1458,"Ġpat":1459,"Ġcle":1460,"Ġev":1461,"Ġshou":1462,"Ġmask":1463,"Ġelderly":1464,"Ġgraffiti":1465,"Ġrestaurant":1466,"Ġequipment":1467,"dge":1468,"ool":1469,"hered":1470,"Ġpile":1471,"ones":1472,"Ġref":1473,"aret":1474,"Ġdeep":1475,"Ġhurdle":1476,"Ġretrie":1477,"br":1478,"Ġtake":1479,"Ġban":1480,"Ġbiting":1481,"Ġboth":1482,"Ġrollerbla":1483,"Ġcigaret":1484,"ini":1485,"Ġgather":1486,"ural":1487,"Ġlone":1488,"Ġskis":1489,"Ġskating":1490,"Ġstruct":1491,"Ġsweatshirt":1492,"Ġsetting":1493,"Ġstructure":1494,"ced":1495,"ike":1496,"Ġbm":1497,"Ġwetsuit":1498,"avel":1499,"Ġmuddy":1500,"Ġlike":1501,"Ġsleep":1502,"Ġter":1503,"Ġsing":1504,"Ġbare":1505,"Ġinfl":1506,"Ġgym":1507,"Ġraft":1508,"Ġdry":1509,"Ġcourt":1510,"Ġflags":1511,"Ġfalling":1512,"Ġhiker":1513,"cor":1514,"Ġbull":1515,"Ġcre":1516,"Ġshort":1517,"Ġtank":1518,"Ġguys":1519,"Ġbags":1520,"Ġvehicle":1521,"Ġcanoe":1522,"Ġdresses":1523,"Ġnew":1524,"Ġbucket":1525,"Ġbmx":1526,"lers":1527,"Ġindo":1528,"ase":1529,"Ġlow":1530,"Ġele":1531,"Ġledge":1532,"Ġcrowded":1533,"ips":1534,"Ġsprink":1535,"uffy":1536,"Ġsix":1537,"Ġmusic":1538,"ban":1539,"Ġgerman":1540,"Ġslope":1541,"Ġcigarette":1542,"ines":1543,"head":1544,"Ġmul":1545,"Ġairbor":1546,"Ġart":1547,"Ġflower":1548,"Ġdriving":1549,"Ġairborne":1550,"Ġqu":1551,"ane":1552,"ert":1553,"room":1554,"Ġcement":1555,"Ġring":1556,"Ġgogg":1557,"Ġfaces":1558,"Ġcont":1559,"Ġdance":1560,"Ġhave":1561,"Ġinflat":1562,"ned":1563,"out":1564,"Ġme":1565,"Ġstat":1566,"lored":1567,"Ġblan":1568,"Ġgoes":1569,"Ġparking":1570,"ares":1571,"Ġshep":1572,"Ġballo":1573,"Ġcostumes":1574,"Ġdiving":1575,"Ġoppos":1576,"Ġgoggles":1577,"Ġinflatable":1578,"Ġtun":1579,"Ġcyclist":1580,"arm":1581,"Ġfing":1582,"icycle":1583,"aked":1584,"Ġkicking":1585,"Ġteenage":1586,"Ġbottle":1587,"Ġsubway":1588,"allen":1589,"Ġblanket":1590,"Ġsa":1591,"Ġpie":1592,"Ġcrou":1593,"ish":1594,"Ġmic":1595,"Ġboun":1596,"herd":1597,"Ġshaking":1598,"boy":1599,"Ġsports":1600,"Ġbuildings":1601,"ached":1602,"Ġsplashes":1603,"iz":1604,"yard":1605,"Ġtat":1606,"Ġgi":1607,"Ġgat":1608,"Ġfallen":1609,"Ġhit":1610,"aching":1611,"Ġscen":1612,"Ġparade":1613,"Ġpaint":1614,"Ġshepherd":1615,"Ġmicro":1616,"band":1617,"Ġpull":1618,"Ġduck":1619,"Ġglo":1620,"Ġhom":1621,"Ġstuff":1622,"Ġears":1623,"ger":1624,"ha":1625,"pes":1626,"sp":1627,"Ġcount":1628,"ally":1629,"wor":1630,"Ġtou":1631,"Ġleg":1632,"Ġjackets":1633,"Ġcheer":1634,"Ġbalan":1635,"Ġsilver":1636,"Ġgathered":1637,"ds":1638,"hill":1639,"Ġmon":1640,"Ġfet":1641,"Ġfull":1642,"ghts":1643,"Ġlog":1644,"Ġsmoking":1645,"rier":1646,"Ġleather":1647,"Ġbackyard":1648,"Ġsmaller":1649,"Ġsoft":1650,"Ġpictures":1651,"ends":1652,"Ġthrows":1653,"Ġchairs":1654,"Ġcloseup":1655,"Ġtunnel":1656,"Ġmicrophone":1657,"aring":1658,"Ġboots":1659,"Ġballs":1660,"Ġheld":1661,"Ġsunny":1662,"Ġbikini":1663,"covered":1664,"Ġcowboy":1665,"Ġevent":1666,"vers":1667,"Ġwr":1668,"Ġcup":1669,"Ġstage":1670,"ids":1671,"Ġcars":1672,"Ġsurface":1673,"Ġfluffy":1674,"Ġscoot":1675,"Ġunderw":1676,"Ġkicks":1677,"Ġtug":1678,"Ġbran":1679,"ute":1680,"Ġnet":1681,"Ġhiking":1682,"Ġoutfits":1683,"Ġpushing":1684,"Ġusing":1685,"Ġrugby":1686,"Ġpiece":1687,"Ġind":1688,"Ġdig":1689,"Ġglass":1690,"ush":1691,"Ġbicyclist":1692,"yclists":1693,"Ġpainted":1694,"Ġpointing":1695,"Ġstatue":1696,"Ġstuffed":1697,"ere":1698,"lic":1699,"na":1700,"play":1701,"Ġinstr":1702,"Ġgrind":1703,"adow":1704,"Ġsticks":1705,"Ġbald":1706,"Ġswimsuit":1707,"Ġteenag":1708,"Ġblowing":1709,"Ġsteep":1710,"Ġtatto":1711,"Ġsuits":1712,"Ġcover":1713,"Ġkit":1714,"Ġspot":1715,"Ġvol":1716,"Ġsheep":1717,"aved":1718,"Ġdrinks":1719,"Ġtube":1720,"aches":1721,"ators":1722,"Ġfun":1723,"Ġshot":1724,"Ġlap":1725,"phones":1726,"leyball":1727,"Ġspeed":1728,"Ġsleeping":1729,"Ġscooter":1730,"Ġvolleyball":1731,"ales":1732,"der":1733,"Ġfil":1734,"Ġhind":1735,"aster":1736,"Ġbea":1737,"Ġspect":1738,"Ġshoot":1739,"Ġwrestling":1740,"Ġcorner":1741,"Ġpolice":1742,"Ġhugging":1743,"Ġfurry":1744,"Ġhome":1745,"haired":1746,"ber":1747,"ich":1748,"Ġsame":1749,"Ġbut":1750,"ary":1751,"Ġhal":1752,"Ġfore":1753,"ape":1754,"Ġseat":1755,"Ġdrum":1756,"Ġmotorcyclist":1757,"Ġhangs":1758,"Ġcrossing":1759,"Ġpoints":1760,"Ġdisplay":1761,"Ġwork":1762,"Ġphotograph":1763,"Ġenjoy":1764,"rack":1765,"Ġfair":1766,"ads":1767,"Ġleans":1768,"ugg":1769,"Ġafr":1770,"Ġwrestle":1771,"Ġstaring":1772,"Ġattempting":1773,"Ġkissing":1774,"Ġmarket":1775,"Ġbunch":1776,"Ġbeaut":1777,"Ġspectators":1778,"Ġsay":1779,"Ġwading":1780,"ron":1781,"Ġgard":1782,"Ġfast":1783,"Ġap":1784,"Ġlick":1785,"chool":1786,"ime":1787,"eling":1788,"stand":1789,"top":1790,"ipe":1791,"Ġparty":1792,"Ġlays":1793,"Ġteams":1794,"Ġamong":1795,"Ġfew":1796,"Ġattempts":1797,"Ġgarden":1798,"ered":1799,"Ġend":1800,"Ġwide":1801,"ars":1802,"Ġfri":1803,"look":1804,"Ġbelow":1805,"Ġbeige":1806,"Ġlad":1807,"Ġfacing":1808,"Ġbicycles":1809,"Ġsnowboarding":1810,"Ġpuppies":1811,"Ġdesert":1812,"ious":1813,"Ġinstrum":1814,"che":1815,"ls":1816,"ined":1817,"Ġschool":1818,"Ġbath":1819,"Ġpet":1820,"roll":1821,"Ġcut":1822,"Ġonlook":1823,"ung":1824,"lace":1825,"urban":1826,"Ġsniff":1827,"Ġcarpet":1828,"app":1829,"Ġfenced":1830,"Ġfish":1831,"Ġbottom":1832,"self":1833,"Ġafrican":1834,"Ġown":1835,"Ġpack":1836,"als":1837,"Ġracket":1838,"Ġchain":1839,"iful":1840,"Ġsticking":1841,"Ġattached":1842,"Ġcompetition":1843,"Ġsprinkler":1844,"Ġsoftball":1845,"Ġunderwater":1846,"Ġbeautiful":1847,"aks":1848,"gy":1849,"mo":1850,"ns":1851,"Ġrough":1852,"Ġway":1853,"alm":1854,"etrack":1855,"Ġpood":1856,"Ġpoles":1857,"Ġeats":1858,"Ġstret":1859,"Ġoffic":1860,"Ġwaving":1861,"Ġheadband":1862,"Ġemp":1863,"Ġappear":1864,"Ġracetrack":1865,"Ġonlookers":1866,"foot":1867,"ien":1868,"ught":1869,"ven":1870,"whe":1871,"Ġtro":1872,"ret":1873,"Ġstop":1874,"Ġwhich":1875,"Ġnaked":1876,"Ġgrab":1877,"Ġgravel":1878,"Ġwait":1879,"Ġwake":1880,"Ġmoto":1881,"Ġvide":1882,"Ġdances":1883,"Ġphone":1884,"Ġrolling":1885,"Ġtalks":1886,"colored":1887,"Ġhula":1888,"Ġwatersk":1889,"az":1890,"Ġwings":1891,"Ġbur":1892,"Ġint":1893,"Ġpick":1894,"Ġgun":1895,"Ġcol":1896,"key":1897,"Ġracer":1898,"Ġparach":1899,"Ġsigns":1900,"Ġcheck":1901,"ract":1902,"Ġprepares":1903,"Ġempty":1904,"Ġmotocross":1905,"haw":1906,"ou":1907,"Ġtri":1908,"Ġpub":1909,"Ġdun":1910,"Ġdire":1911,"Ġcard":1912,"Ġhits":1913,"eth":1914,"Ġjust":1915,"Ġdownhill":1916,"Ġkn":1917,"Ġmohaw":1918,"Ġhandstand":1919,"Ġseated":1920,"Ġtoys":1921,"Ġheads":1922,"wards":1923,"Ġcomp":1924,"Ġbride":1925,"Ġplaid":1926,"Ġbirds":1927,"Ġpushes":1928,"Ġclear":1929,"Ġbarefoot":1930,"Ġbranch":1931,"Ġladies":1932,"Ġmohawk":1933,"cher":1934,"de":1935,"Ġtw":1936,"Ġpr":1937,"atform":1938,"Ġhard":1939,"ical":1940,"vement":1941,"Ġshop":1942,"Ġcloud":1943,"Ġmotorb":1944,"Ġfloat":1945,"Ġhaving":1946,"Ġplatform":1947,"Ġpainting":1948,"Ġpaddling":1949,"Ġpavement":1950,"Ġshoulder":1951,"Ġpublic":1952,"con":1953,"of":1954,"Ġpier":1955,"Ġcas":1956,"Ġcrick":1957,"art":1958,"Ġmed":1959,"Ġhapp":1960,"Ġpost":1961,"Ġtraff":1962,"Ġskateboards":1963,"Ġcream":1964,"Ġscene":1965,"erent":1966,"Ġcricket":1967,"Ġtraffic":1968,"oc":1969,"oke":1970,"Ġwed":1971,"Ġpaw":1972,"Ġpract":1973,"Ġdiff":1974,"ery":1975,"Ġlit":1976,"Ġoutst":1977,"Ġrap":1978,"ails":1979,"Ġreads":1980,"Ġlandsc":1981,"Ġchewing":1982,"Ġgloves":1983,"Ġwakeboard":1984,"Ġdifferent":1985,"Ġurban":1986,"inning":1987,"Ġcree":1988,"Ġmil":1989,"Ġrural":1990,"Ġstroll":1991,"Ġtow":1992,"Ġthrown":1993,"Ġbeg":1994,"Ġbeer":1995,"Ġhose":1996,"stage":1997,"Ġraces":1998,"Ġdirty":1999,"Ġteeth":2000,"ending":2001,"Ġdrives":2002,"Ġkitche":2003,"Ġhalf":2004,"Ġlandscape":2005,"Ġkitchen":2006,"case":2007,"fore":2008,"ied":2009,"niv":2010,"read":2011,"Ġmother":2012,"Ġac":2013,"Ġtoss":2014,"Ġbefore":2015,"Ġcarniv":2016,"Ġbars":2017,"fully":2018,"Ġsplash":2019,"avy":2020,"Ġresting":2021,"Ġmatch":2022,"Ġnewsp":2023,"Ġballoon":2024,"Ġcheerle":2025,"Ġfilled":2026,"ience":2027,"Ġcarnival":2028,"hle":2029,"land":2030,"rist":2031,"Ġsum":2032,"Ġsant":2033,"Ġwire":2034,"Ġbro":2035,"Ġpaved":2036,"Ġcand":2037,"ise":2038,"Ġstad":2039,"iding":2040,"ides":2041,"Ġlies":2042,"Ġshadow":2043,"Ġyounger":2044,"Ġround":2045,"Ġsmoke":2046,"Ġwaits":2047,"Ġfly":2048,"Ġplants":2049,"Ġgoalie":2050,"Ġbearded":2051,"Ġindoor":2052,"Ġopposing":2053,"Ġsays":2054,"Ġwedding":2055,"Ġcreek":2056,"ric":2057,"ved":2058,"Ġwe":2059,"Ġcla":2060,"Ġaud":2061,"Ġran":2062,"Ġatv":2063,"Ġskin":2064,"usk":2065,"Ġheadphones":2066,"Ġdecor":2067,"Ġwrestler":2068,"Ġshowing":2069,"Ġanimals":2070,"Ġexp":2071,"Ġblows":2072,"Ġgreyhounds":2073,"Ġformation":2074,"Ġrapids":2075,"Ġstadium":2076,"sed":2077,"ites":2078,"Ġonstage":2079,"Ġhay":2080,"lders":2081,"ese":2082,"Ġthird":2083,"Ġathle":2084,"Ġblur":2085,"Ġskates":2086,"Ġmoving":2087,"Ġreaching":2088,"Ġparked":2089,"Ġscre":2090,"Ġboats":2091,"ession":2092,"Ġlights":2093,"Ġslee":2094,"Ġbandan":2095,"Ġsanta":2096,"mer":2097,"mas":2098,"nic":2099,"Ġtie":2100,"Ġtalk":2101,"Ġfan":2102,"lage":2103,"irst":2104,"Ġrub":2105,"Ġbound":2106,"ette":2107,"Ġchrist":2108,"Ġrunner":2109,"Ġmouths":2110,"Ġseen":2111,"Ġchase":2112,"Ġjeep":2113,"Ġdeck":2114,"Ġamuse":2115,"Ġwhere":2116,"Ġfalls":2117,"Ġcraw":2118,"Ġpaddle":2119,"Ġsinging":2120,"Ġfinger":2121,"Ġsaf":2122,"Ġforeground":2123,"Ġinstruments":2124,"Ġvideo":2125,"Ġbandanna":2126,"ble":2127,"back":2128,"ton":2129,"Ġz":2130,"Ġent":2131,"Ġmach":2132,"Ġgian":2133,"irc":2134,"Ġstud":2135,"ctive":2136,"Ġclown":2137,"Ġdrag":2138,"Ġhelmets":2139,"Ġprof":2140,"Ġpulled":2141,"Ġcurly":2142,"Ġmatching":2143,"Ġrefle":2144,"Ġterr":2145,"Ġtattoo":2146,"Ġfunny":2147,"Ġshooting":2148,"Ġpoodle":2149,"Ġmotorbike":2150,"Ġcheerlead":2151,"ges":2152,"per":2153,"ser":2154,"Ġpipe":2155,"Ġcirc":2156,"Ġmem":2157,"Ġhot":2158,"Ġhitting":2159,"ens":2160,"Ġropes":2161,"Ġtry":2162,"Ġreaches":2163,"Ġunicycle":2164,"Ġfloating":2165,"ended":2166,"Ġdribb":2167,"Ġstaircase":2168,"Ġbrightly":2169,"retched":2170,"Ġoutstretched":2171,"Ġnewspaper":2172,"Ġaudience":2173,"Ġchristmas":2174,"Ġamusement":2175,"og":2176,"Ġdust":2177,"Ġmi":2178,"Ġgl":2179,"Ġgar":2180,"eds":2181,"Ġshakes":2182,"Ġatop":2183,"Ġnat":2184,"vert":2185,"Ġhole":2186,"Ġshov":2187,"Ġflight":2188,"Ġalongside":2189,"Ġpurse":2190,"eather":2191,"Ġbushes":2192,"Ġwheelie":2193,"Ġmarti":2194,"Ġbubble":2195,"ticip":2196,"Ġpreparing":2197,"Ġraises":2198,"Ġshoulders":2199,"Ġretriever":2200,"Ġbank":2201,"Ġgrinding":2202,"Ġteenagers":2203,"Ġspotted":2204,"Ġgiant":2205,"Ġmartial":2206,"ses":2207,"Ġswor":2208,"Ġinc":2209,"Ġden":2210,"ashes":2211,"ashing":2212,"Ġlined":2213,"Ġrode":2214,"Ġext":2215,"Ġkite":2216,"Ġlarger":2217,"aped":2218,"Ġsurfs":2219,"Ġskiers":2220,"Ġvi":2221,"quet":2222,"Ġguard":2223,"Ġplate":2224,"Ġcorn":2225,"Ġbreak":2226,"Ġmuzzle":2227,"hou":2228,"Ġfollows":2229,"Ġpulls":2230,"Ġcounter":2231,"Ġdigging":2232,"Ġappears":2233,"Ġdirection":2234,"Ġcomput":2235,"Ġpractic":2236,"ged":2237,"rail":2238,"Ġim":2239,"ety":2240,"Ġshag":2241,"Ġnot":2242,"Ġcold":2243,"Ġalone":2244,"Ġparas":2245,"Ġhang":2246,"Ġstraw":2247,"Ġprote":2248,"Ġeye":2249,"Ġhikers":2250,"Ġsilhou":2251,"Ġrowing":2252,"Ġappro":2253,"Ġputting":2254,"Ġmuzzled":2255,"Ġhoodie":2256,"Ġmulti":2257,"Ġbalancing":2258,"Ġcovering":2259,"Ġenjoys":2260,"Ġterrain":2261,"Ġdenim":2262,"Ġrodeo":2263,"cy":2264,"pl":2265,"ured":2266,"Ġsus":2267,"Ġwrap":2268,"Ġmound":2269,"cks":2270,"Ġstation":2271,"boat":2272,"Ġtricycle":2273,"Ġbacks":2274,"Ġbackwards":2275,"apped":2276,"Ġspinning":2277,"Ġpicnic":2278,"Ġhimself":2279,"Ġparticip":2280,"Ġconstr":2281,"Ġadvert":2282,"Ġchest":2283,"Ġribb":2284,"Ġleaf":2285,"tico":2286,"Ġkneeling":2287,"Ġsquirt":2288,"Ġpaddles":2289,"Ġputs":2290,"Ġhooded":2291,"Ġindoors":2292,"Ġmultico":2293,"Ġgives":2294,"Ġgiving":2295,"Ġparachute":2296,"Ġshaggy":2297,"Ġadvertis":2298,"uction":2299,"Ġser":2300,"Ġwarm":2301,"Ġbite":2302,"itary":2303,"Ġped":2304,"Ġpige":2305,"Ġclass":2306,"Ġgate":2307,"Ġsto":2308,"chair":2309,"Ġjumped":2310,"olin":2311,"Ġhandrail":2312,"cting":2313,"Ġsea":2314,"Ġpart":2315,"dder":2316,"Ġshows":2317,"Ġlaughs":2318,"Ġsiz":2319,"Ġpolic":2320,"Ġrollerblad":2321,"Ġelect":2322,"Ġsusp":2323,"ele":2324,"go":2325,"que":2326,"Ġite":2327,"Ġpig":2328,"ering":2329,"lax":2330,"ening":2331,"Ġplayfully":2332,"Ġpeace":2333,"Ġriders":2334,"Ġladder":2335,"Ġrelax":2336,"Ġcamp":2337,"Ġsoon":2338,"eman":2339,"Ġunderne":2340,"Ġcloth":2341,"Ġbackpacks":2342,"Ġcompeting":2343,"Ġnecklace":2344,"Ġenjoying":2345,"Ġwriting":2346,"Ġlicking":2347,"Ġsniffing":2348,"Ġowner":2349,"Ġclouds":2350,"Ġsafety":2351,"Ġprofession":2352,"Ġviolin":2353,"Ġconstruction":2354,"Ġitem":2355,"gon":2356,"kes":2357,"me":2358,"val":2359,"Ġtak":2360,"Ġbites":2361,"Ġpot":2362,"Ġgro":2363,"ident":2364,"Ġjung":2365,"urf":2366,"elling":2367,"olf":2368,"Ġseven":2369,"Ġscr":2370,"Ġbikers":2371,"Ġdrive":2372,"Ġstring":2373,"Ġjog":2374,"Ġpassing":2375,"Ġdoorway":2376,"Ġtackle":2377,"Ġterrier":2378,"Ġquick":2379,"Ġfingers":2380,"Ġfetch":2381,"Ġmachine":2382,"Ġunderneath":2383,"Ġjungle":2384,"ee":2385,"eree":2386,"flage":2387,"tes":2388,"Ġic":2389,"ang":2390,"Ġsail":2391,"Ġthese":2392,"Ġpun":2393,"arate":2394,"Ġmir":2395,"Ġmade":2396,"Ġrink":2397,"Ġstump":2398,"Ġjet":2399,"Ġtho":2400,"ited":2401,"oth":2402,"Ġcamou":2403,"Ġheadsc":2404,"Ġhillside":2405,"Ġcoats":2406,"Ġcollie":2407,"Ġsplashed":2408,"Ġwheelchair":2409,"Ġpony":2410,"Ġjockey":2411,"Ġbowl":2412,"Ġreferee":2413,"headed":2414,"Ġcrouches":2415,"Ġducks":2416,"Ġcountry":2417,"Ġfriend":2418,"Ġwaterski":2419,"Ġpaws":2420,"Ġmilitary":2421,"Ġdecorated":2422,"Ġcomputer":2423,"plane":2424,"Ġpigeons":2425,"Ġrollerblades":2426,"Ġprofessional":2427,"Ġtaken":2428,"Ġquickly":2429,"Ġmirro":2430,"Ġcamouflage":2431,"bile":2432,"int":2433,"Ġdro":2434,"erry":2435,"Ġcone":2436,"arp":2437,"aling":2438,"Ġbou":2439,"Ġthumb":2440,"Ġcoff":2441,"Ġskater":2442,"Ġheavy":2443,"Ġcarri":2444,"Ġspots":2445,"Ġsee":2446,"Ġhelps":2447,"Ġobser":2448,"Ġwalkway":2449,"Ġbarrier":2450,"Ġdriver":2451,"Ġkayaking":2452,"ggy":2453,"Ġemer":2454,"Ġtrunk":2455,"Ġdesc":2456,"Ġphotographer":2457,"Ġcaught":2458,"Ġhoops":2459,"Ġrollerblading":2460,"Ġopposite":2461,"Ġbouncing":2462,"Ġbalances":2463,"Ġhomeless":2464,"Ġscreen":2465,"Ġheadscarf":2466,"act":2467,"zen":2468,"ining":2469,"Ġwar":2470,"road":2471,"ator":2472,"Ġgroom":2473,"Ġhall":2474,"Ġwithout":2475,"Ġlist":2476,"Ġwatched":2477,"elf":2478,"ely":2479,"Ġbiking":2480,"Ġtravel":2481,"Ġkarate":2482,"Ġraf":2483,"Ġlab":2484,"Ġstreets":2485,"Ġwagon":2486,"Ġshown":2487,"uses":2488,"Ġarts":2489,"Ġtents":2490,"Ġtracks":2491,"Ġcourty":2492,"Ġrolls":2493,"Ġwinds":2494,"Ġlanding":2495,"Ġgymn":2496,"Ġballoons":2497,"Ġmonkey":2498,"Ġdune":2499,"Ġstroller":2500,"Ġsooners":2501,"Ġmirror":2502,"Ġcoffee":2503,"Ġcourtyard":2504,"cts":2505,"igh":2506,"ous":2507,"Ġwild":2508,"Ġpuck":2509,"arrow":2510,"lor":2511,"Ġjack":2512,"itten":2513,"ama":2514,"Ġeat":2515,"Ġeaster":2516,"Ġspid":2517,"Ġreach":2518,"Ġclimbers":2519,"Ġhelping":2520,"Ġframe":2521,"Ġbarking":2522,"Ġchee":2523,"Ġdev":2524,"Ġmotorcycles":2525,"Ġdisc":2526,"Ġuses":2527,"Ġmakeup":2528,"Ġformal":2529,"izon":2530,"Ġfetching":2531,"Ġcardboard":2532,"Ġmedium":2533,"Ġrange":2534,"Ġblurry":2535,"Ġsuspended":2536,"Ġgrocer":2537,"ians":2538,"ues":2539,"Ġtut":2540,"Ġtab":2541,"Ġwell":2542,"Ġinter":2543,"Ġcyclists":2544,"leep":2545,"Ġgolf":2546,"Ġfather":2547,"Ġfarm":2548,"alley":2549,"alls":2550,"pless":2551,"Ġpee":2552,"ami":2553,"illow":2554,"ility":2555,"Ġcoaster":2556,"Ġfrozen":2557,"Ġsmok":2558,"ular":2559,"Ġasleep":2560,"Ġneon":2561,"Ġmountainside":2562,"Ġbend":2563,"Ġbending":2564,"Ġjean":2565,"Ġstrip":2566,"Ġdef":2567,"Ġdead":2568,"Ġbalcon":2569,"Ġflowered":2570,"Ġplane":2571,"Ġpret":2572,"Ġcrashing":2573,"Ġjerseys":2574,"Ġkneels":2575,"Ġraised":2576,"Ġblocks":2577,"Ġpatch":2578,"Ġtouching":2579,"Ġpetting":2580,"Ġknit":2581,"Ġhappily":2582,"Ġbegins":2583,"Ġrubber":2584,"Ġmiami":2585,"Ġpracticing":2586,"Ġjogging":2587,"bow":2588,"oks":2589,"inis":2590,"Ġtight":2591,"Ġtag":2592,"Ġpir":2593,"Ġpor":2594,"Ġpump":2595,"Ġdusk":2596,"Ġcake":2597,"Ġmess":2598,"Ġonly":2599,"Ġhum":2600,"Ġwhist":2601,"Ġrob":2602,"Ġsnowball":2603,"Ġairplane":2604,"Ġspark":2605,"Ġsport":2606,"Ġforward":2607,"Ġmountaintop":2608,"Ġvar":2609,"Ġbarrel":2610,"Ġplain":2611,"Ġattire":2612,"Ġflam":2613,"Ġsurrounding":2614,"Ġleaving":2615,"Ġcrosses":2616,"Ġshoreline":2617,"Ġturning":2618,"Ġprot":2619,"Ġtraining":2620,"Ġtires":2621,"Ġboxing":2622,"Ġsprayed":2623,"Ġindian":2624,"Ġgrinds":2625,"Ġteenager":2626,"Ġdribbles":2627,"Ġbalcony":2628,"clo":2629,"ky":2630,"mp":2631,"ners":2632,"so":2633,"tu":2634,"tle":2635,"ual":2636,"Ġbin":2637,"Ġpow":2638,"Ġport":2639,"Ġda":2640,"Ġdim":2641,"Ġcro":2642,"Ġcent":2643,"Ġfree":2644,"Ġaction":2645,"esti":2646,"Ġtown":2647,"Ġchur":2648,"Ġcoach":2649,"Ġlots":2650,"Ġoveralls":2651,"ulp":2652,"Ġhandle":2653,"Ġalmo":2654,"Ġfake":2655,"Ġbicyclists":2656,"Ġhills":2657,"Ġvalley":2658,"down":2659,"Ġflor":2660,"Ġcomes":2661,"Ġhorizon":2662,"Ġattack":2663,"Ġamid":2664,"Ġboardwalk":2665,"Ġwrestlers":2666,"Ġembr":2667,"Ġcurb":2668,"Ġcurve":2669,"Ġhugs":2670,"Ġskirts":2671,"Ġsquare":2672,"Ġracquet":2673,"Ġtackled":2674,"wheel":2675,"Ġsized":2676,"Ġpoliceman":2677,"Ġwaterskiing":2678,"Ġgrocery":2679,"Ġporch":2680,"Ġprotest":2681,"Ġalmost":2682,"bing":2683,"bull":2684,"cut":2685,"eled":2686,"like":2687,"pt":2688,"ring":2689,"udy":2690,"Ġty":2691,"Ġtail":2692,"Ġtime":2693,"Ġsides":2694,"Ġpin":2695,"Ġpan":2696,"Ġpair":2697,"Ġpine":2698,"ront":2699,"Ġcele":2700,"Ġmag":2701,"Ġhow":2702,"Ġaut":2703,"Ġahead":2704,"Ġfig":2705,"Ġfold":2706,"Ġfoam":2707,"Ġalley":2708,"Ġclosed":2709,"agle":2710,"Ġscar":2711,"Ġscub":2712,"Ġsculp":2713,"Ġvis":2714,"ppy":2715,"Ġsheet":2716,"Ġthemsel":2717,"Ġrests":2718,"Ġdives":2719,"Ġkayaker":2720,"Ġworking":2721,"Ġmuzzles":2722,"house":2723,"estri":2724,"Ġcontain":2725,"Ġcrouching":2726,"Ġfriends":2727,"Ġofficer":2728,"Ġsumo":2729,"Ġwrapped":2730,"Ġsmokes":2731,"Ġcelebr":2732,"Ġsculpture":2733,"Ġthemselves":2734,"aul":2735,"bers":2736,"cial":2737,"den":2738,"day":2739,"fe":2740,"light":2741,"min":2742,"Ġ1":2743,"Ġtile":2744,"Ġtig":2745,"Ġok":2746,"Ġdin":2747,"rope":2748,"Ġcast":2749,"let":2750,"Ġfirst":2751,"Ġfesti":2752,"Ġtour":2753,"Ġthin":2754,"umn":2755,"Ġchick":2756,"Ġredheaded":2757,"Ġbeam":2758,"Ġmoves":2759,"Ġspread":2760,"illy":2761,"Ġwoodland":2762,"lly":2763,"Ġslip":2764,"Ġcloudy":2765,"Ġhike":2766,"Ġswimmer":2767,"Ġcones":2768,"Ġconcer":2769,"acher":2770,"Ġcolors":2771,"Ġfeed":2772,"Ġshower":2773,"Ġflips":2774,"Ġexc":2775,"Ġexam":2776,"Ġvehicles":2777,"Ġpaj":2778,"Ġrainbow":2779,"Ġfollowing":2780,"Ġgathering":2781,"Ġtattoos":2782,"Ġapple":2783,"Ġtowel":2784,"Ġcandles":2785,"Ġstudents":2786,"Ġcheerleaders":2787,"Ġmembers":2788,"Ġimage":2789,"Ġribbon":2790,"Ġmulticolored":2791,"Ġthough":2792,"Ġthumbs":2793,"Ġwindsurf":2794,"tube":2795,"Ġscuba":2796,"cl":2797,"count":2798,"dles":2799,"die":2800,"fa":2801,"lit":2802,"yle":2803,"Ġsod":2804,"Ġwine":2805,"Ġinner":2806,"Ġpalm":2807,"Ġpillow":2808,"ised":2809,"Ġmerry":2810,"Ġfans":2811,"Ġfeather":2812,"Ġstom":2813,"Ġtopless":2814,"Ġship":2815,"Ġsharp":2816,"Ġchalk":2817,"ersk":2818,"Ġnum":2819,"Ġroof":2820,"Ġsnowmo":2821,"ades":2822,"keep":2823,"Ġleading":2824,"Ġleads":2825,"Ġtrash":2826,"Ġmost":2827,"Ġmove":2828,"Ġshoe":2829,"Ġsurfers":2830,"Ġsandals":2831,"Ġkiddie":2832,"pped":2833,"Ġobama":2834,"Ġbrush":2835,"Ġteamm":2836,"Ġplace":2837,"Ġrollersk":2838,"Ġcrosswalk":2839,"Ġeng":2840,"Ġlift":2841,"Ġmarking":2842,"Ġspeaking":2843,"Ġvests":2844,"Ġturns":2845,"Ġkisses":2846,"Ġknee":2847,"Ġpasses":2848,"Ġpitcher":2849,"Ġspraying":2850,"Ġcave":2851,"Ġchews":2852,"Ġpatio":2853,"ized":2854,"Ġdrums":2855,"Ġapron":2856,"Ġcolle":2857,"Ġfancy":2858,"Ġsword":2859,"Ġsilhouette":2860,"Ġgymnast":2861,"Ġeastern":2862,"Ġcheek":2863,"Ġfigure":2864,"Ġscarves":2865,"Ġtiger":2866,"Ġsoda":2867,"Ġstomach":2868,"com":2869,"dress":2870,"hood":2871,"ible":2872,"place":2873,"sk":2874,"Ġtub":2875,"Ġsupp":2876,"Ġbill":2877,"Ġpen":2878,"erial":2879,"Ġmom":2880,"Ġge":2881,"Ġges":2882,"Ġaim":2883,"Ġstool":2884,"Ġboog":2885,"Ġbooth":2886,"ument":2887,"Ġpeak":2888,"ster":2889,"Ġswan":2890,"Ġfoggy":2891,"apers":2892,"Ġherself":2893,"Ġspar":2894,"Ġitself":2895,"Ġsofa":2896,"Ġseats":2897,"Ġcatcher":2898,"Ġalso":2899,"aged":2900,"Ġtele":2901,"Ġhelp":2902,"Ġdraw":2903,"Ġmotion":2904,"Ġscaling":2905,"Ġcarry":2906,"ways":2907,"Ġconvers":2908,"Ġliving":2909,"Ġenclo":2910,"Ġmarching":2911,"Ġturned":2912,"Ġpitbull":2913,"Ġbanner":2914,"Ġsleeps":2915,"Ġsprinklers":2916,"Ġtouches":2917,"Ġtrip":2918,"Ġhappy":2919,"Ġskinned":2920,"Ġcrawls":2921,"Ġlistening":2922,"Ġtutu":2923,"Ġtables":2924,"Ġpirate":2925,"Ġcenter":2926,"Ġchurch":2927,"Ġembrace":2928,"country":2929,"Ġboogie":2930,"ailing":2931,"bat":2932,"cent":2933,"fight":2934,"hday":2935,"ma":2936,"time":2937,"xed":2938,"iny":2939,"Ġtul":2940,"anese":2941,"Ġsu":2942,"Ġble":2943,"Ġbirt":2944,"Ġinline":2945,"Ġcase":2946,"Ġfle":2947,"Ġhuddle":2948,"Ġstares":2949,"Ġwhat":2950,"Ġplayed":2951,"Ġjap":2952,"Ġjugg":2953,"Ġshaped":2954,"Ġchines":2955,"Ġbeads":2956,"Ġsnowsuit":2957,"Ġskull":2958,"Ġridden":2959,"Ġleashes":2960,"Ġres":2961,"Ġcamer":2962,"Ġseag":2963,"illing":2964,"Ġwalls":2965,"Ġbenches":2966,"Ġflock":2967,"Ġchased":2968,"Ġbrun":2969,"Ġshel":2970,"ops":2971,"Ġagility":2972,"Ġbagp":2973,"Ġretur":2974,"Ġcompete":2975,"ivid":2976,"Ġoppon":2977,"Ġtackling":2978,"Ġrollerblader":2979,"Ġeleph":2980,"Ġindivid":2981,"Ġlicks":2982,"Ġexpress":2983,"Ġcircle":2984,"Ġprotective":2985,"Ġcarriage":2986,"Ġrafting":2987,"Ġvarious":2988,"Ġtype":2989,"Ġinnertube":2990,"Ġgesture":2991,"Ġbirthday":2992,"Ġjapanese":2993,"Ġchinese":2994,"first":2995,"front":2996,"hat":2997,"hom":2998,"ights":2999,"port":3000,"tr":3001,"tails":3002,"Ġ2":3003,"Ġident":3004,"ints":3005,"Ġsings":3006,"ital":3007,"Ġpale":3008,"rol":3009,"Ġcran":3010,"Ġmone":3011,"Ġgent":3012,"Ġgaz":3013,"lahom":3014,"wood":3015,"Ġyou":3016,"ics":3017,"amas":3018,"ilt":3019,"Ġloc":3020,"aded":3021,"Ġpouring":3022,"Ġlead":3023,"Ġtrav":3024,"Ġbush":3025,"Ġlaun":3026,"olate":3027,"Ġrecor":3028,"ift":3029,"ifier":3030,"Ġneigh":3031,"abric":3032,"Ġsideways":3033,"aki":3034,"ipping":3035,"Ġfloats":3036,"Ġcomple":3037,"Ġjew":3038,"Ġstra":3039,"Ġpres":3040,"Ġrailroad":3041,"Ġboxer":3042,"borhood":3043,"Ġdesk":3044,"Ġfoli":3045,"Ġrows":3046,"Ġcafe":3047,"Ġbowling":3048,"Ġraising":3049,"Ġfollowed":3050,"Ġretrieving":3051,"Ġsingle":3052,"Ġmusicians":3053,"Ġbounce":3054,"Ġtouch":3055,"Ġworkers":3056,"Ġbathroom":3057,"Ġpicking":3058,"Ġskinny":3059,"Ġsleeve":3060,"Ġgarb":3061,"Ġnatural":3062,"Ġicy":3063,"Ġboulder":3064,"Ġhallway":3065,"Ġspiderman":3066,"Ġdevice":3067,"Ġdaught":3068,"Ġoklahom":3069,"Ġfeeding":3070,"Ġpajamas":3071,"Ġmarkings":3072,"Ġgeese":3073,"Ġtulips":3074,"Ġseagull":3075,"Ġmoney":3076,"Ġgentle":3077,"Ġneighborhood":3078,"Ġoklahoma":3079,"berman":3080,"eath":3081,"fire":3082,"gers":3083,"ield":3084,"ka":3085,"men":3086,"med":3087,"nam":3088,"py":3089,"th":3090,"tub":3091,"inging":3092,"Ġsim":3093,"Ġsilly":3094,"Ġwig":3095,"Ġbul":3096,"Ġpi":3097,"Ġgall":3098,"Ġgrow":3099,"Ġdoll":3100,"Ġdoberman":3101,"Ġfabric":3102,"Ġhusk":3103,"cked":3104,"Ġaqu":3105,"Ġstuck":3106,"Ġtoile":3107,"Ġlips":3108,"Ġshade":3109,"Ġchar":3110,"Ġrunners":3111,"Ġnarrow":3112,"Ġloun":3113,"Ġeight":3114,"aps":3115,"Ġrear":3116,"Ġcamel":3117,"Ġcamels":3118,"akers":3119,"Ġheadfirst":3120,"Ġslight":3121,"Ġteal":3122,"Ġbends":3123,"Ġbeneath":3124,"Ġscales":3125,"Ġposition":3126,"Ġfruit":3127,"Ġparti":3128,"Ġbarren":3129,"Ġstrugg":3130,"Ġsets":3131,"Ġplant":3132,"Ġfisher":3133,"Ġfishes":3134,"Ġswimsuits":3135,"Ġprod":3136,"Ġwheels":3137,"Ġlifts":3138,"Ġattempt":3139,"Ġlands":3140,"Ġpatter":3141,"bank":3142,"Ġmeet":3143,"Ġglove":3144,"Ġworker":3145,"Ġphotographs":3146,"Ġintera":3147,"Ġprint":3148,"Ġathlete":3149,"Ġathletic":3150,"Ġbounds":3151,"Ġcrawling":3152,"Ġreflection":3153,"Ġcheerleader":3154,"Ġpedestri":3155,"Ġemerges":3156,"Ġpumpk":3157,"Ġbinoc":3158,"Ġmagaz":3159,"Ġautumn":3160,"Ġconcert":3161,"achers":3162,"Ġsnowmobile":3163,"Ġmostly":3164,"Ġteammate":3165,"Ġbleachers":3166,"Ġbrunette":3167,"Ġexpression":3168,"Ġfoliage":3169,"Ġgallery":3170,"Ġpartially":3171,"awn":3172,"ared":3173,"cers":3174,"capped":3175,"eakers":3176,"ib":3177,"mon":3178,"view":3179,"yon":3180,"za":3181,"Ġes":3182,"Ġkeep":3183,"iness":3184,"Ġsup":3185,"Ġwas":3186,"Ġbad":3187,"Ġinf":3188,"Ġpac":3189,"Ġdalm":3190,"Ġmural":3191,"Ġmales":3192,"Ġdon":3193,"unk":3194,"Ġhut":3195,"Ġass":3196,"ider":3197,"orting":3198,"Ġlink":3199,"acks":3200,"Ġrobe":3201,"Ġbeen":3202,"Ġsneakers":3203,"Ġhouses":3204,"stick":3205,"Ġevery":3206,"Ġkh":3207,"Ġrep":3208,"ific":3209,"ental":3210,"Ġsecon":3211,"Ġflat":3212,"Ġarc":3213,"Ġtops":3214,"Ġvan":3215,"Ġflops":3216,"Ġtreat":3217,"Ġsheer":3218,"Ġstripes":3219,"Ġdeer":3220,"Ġplaza":3221,"Ġaged":3222,"Ġcape":3223,"Ġcaps":3224,"ection":3225,"Ġplan":3226,"Ġcann":3227,"Ġfirewor":3228,"Ġbrides":3229,"Ġflipping":3230,"Ġdistant":3231,"Ġstarting":3232,"Ġspeaks":3233,"Ġfemales":3234,"Ġpolka":3235,"Ġbreaking":3236,"Ġpitch":3237,"Ġracers":3238,"Ġclean":3239,"Ġbuckets":3240,"Ġartist":3241,"Ġquar":3242,"Ġmeadow":3243,"Ġmonument":3244,"Ġsniffs":3245,"Ġofficers":3246,"Ġtrot":3247,"Ġgrabs":3248,"Ġparachut":3249,"Ġcasting":3250,"Ġbrother":3251,"Ġparticipate":3252,"Ġelectric":3253,"Ġjockeys":3254,"Ġtraveling":3255,"Ġpower":3256,"Ġfloral":3257,"Ġamidst":3258,"Ġdaughter":3259,"Ġslightly":3260,"Ġsecond":3261,"ken":3262,"ored":3263,"pr":3264,"tt":3265,"wa":3266,"Ġtied":3267,"Ġsat":3268,"Ġwand":3269,"Ġbund":3270,"Ġbay":3271,"Ġori":3272,"Ġinte":3273,"ither":3274,"Ġdand":3275,"Ġdump":3276,"Ġdem":3277,"Ġcal":3278,"atting":3279,"Ġmall":3280,"Ġmur":3281,"Ġmini":3282,"Ġfar":3283,"Ġfat":3284,"Ġfeat":3285,"oms":3286,"etted":3287,"ork":3288,"Ġplaypen":3289,"Ġlugg":3290,"Ġshaved":3291,"Ġarena":3292,"Ġchoc":3293,"urs":3294,"gee":3295,"Ġbeagle":3296,"ilar":3297,"elry":3298,"stro":3299,"box":3300,"Ġskim":3301,"Ġtrans":3302,"ulars":3303,"Ġspace":3304,"Ġspins":3305,"ipes":3306,"ister":3307,"Ġmidst":3308,"Ġhelmeted":3309,"Ġbikinis":3310,"ache":3311,"Ġbusiness":3312,"Ġcrossed":3313,"ashion":3314,"Ġboarding":3315,"Ġskyline":3316,"Ġstairway":3317,"coat":3318,"ustache":3319,"Ġcrying":3320,"Ġpoint":3321,"Ġsledding":3322,"Ġpush":3323,"Ġmasks":3324,"ivers":3325,"Ġmarked":3326,"itional":3327,"Ġretrieves":3328,"Ġmusical":3329,"Ġcontrol":3330,"Ġcrouched":3331,"Ġbranches":3332,"Ġspeeds":3333,"Ġinstrument":3334,"Ġbathtub":3335,"Ġgrabbing":3336,"Ġhardhat":3337,"Ġwakeboarding":3338,"Ġtossing":3339,"Ġbroken":3340,"Ġcandy":3341,"Ġshovel":3342,"Ġswords":3343,"Ġapproaching":3344,"Ġleafy":3345,"Ġadvertisement":3346,"Ġrelaxing":3347,"Ġcampfire":3348,"Ġdriveway":3349,"Ġponyt":3350,"Ġhuman":3351,"Ġwhistle":3352,"Ġrobes":3353,"Ġfestival":3354,"Ġexcited":3355,"Ġtripod":3356,"Ġopponent":3357,"Ġelephant":3358,"Ġcrane":3359,"Ġjewelry":3360,"Ġstraight":3361,"Ġgentleman":3362,"Ġbinoculars":3363,"Ġinfant":3364,"Ġkhaki":3365,"Ġarcade":3366,"Ġfireworks":3367,"Ġquarter":3368,"Ġinterest":3369,"Ġmurky":3370,"Ġluggage":3371,"Ġchocolate":3372,"aro":3373,"bs":3374,"bed":3375,"bars":3376,"can":3377,"hand":3378,"ia":3379,"iers":3380,"lud":3381,"uals":3382,"war":3383,"Ġsla":3384,"Ġsad":3385,"Ġsque":3386,"Ġweather":3387,"Ġoper":3388,"itor":3389,"Ġpy":3390,"Ġpug":3391,"Ġdread":3392,"Ġcage":3393,"ature":3394,"Ġmiss":3395,"Ġfre":3396,"iring":3397,"Ġact":3398,"ened":3399,"Ġstrange":3400,"Ġstill":3401,"locks":3402,"Ġtool":3403,"Ġlines":3404,"Ġyo":3405,"Ġshr":3406,"Ġcho":3407,"ersection":3408,"Ġnavy":3409,"Ġwaterme":3410,"Ġjumper":3411,"Ġbel":3412,"Ġbever":3413,"Ġbelly":3414,"Ġcobb":3415,"cept":3416,"Ġlogs":3417,"ador":3418,"aditional":3419,"Ġeither":3420,"Ġuphill":3421,"Ġtraditional":3422,"rench":3423,"Ġclub":3424,"icket":3425,"ife":3426,"Ġwaist":3427,"bered":3428,"ubby":3429,"Ġattent":3430,"Ġhorseback":3431,"Ġopens":3432,"Ġfountains":3433,"Ġtoddlers":3434,"Ġkayaks":3435,"Ġdiver":3436,"Ġstars":3437,"Ġrowboat":3438,"Ġphotographed":3439,"Ġknees":3440,"Ġtuxed":3441,"Ġbungee":3442,"Ġelev":3443,"Ġmeal":3444,"Ġscenic":3445,"Ġtugging":3446,"Ġdigs":3447,"Ġkites":3448,"Ġstretching":3449,"Ġstops":3450,"Ġburied":3451,"Ġintersection":3452,"Ġsleeved":3453,"Ġdusty":3454,"Ġshoveling":3455,"Ġinclud":3456,"Ġmultiple":3457,"Ġadvertising":3458,"Ġpigtails":3459,"Ġcountryside":3460,"Ġsparklers":3461,"Ġflames":3462,"Ġdimly":3463,"Ġvisible":3464,"Ġnumbered":3465,"Ġsuv":3466,"Ġsimilar":3467,"Ġpacifier":3468,"Ġponytail":3469,"Ġdreadlocks":3470,"Ġwatermelo":3471,"aft":3472,"een":3473,"girl":3474,"gress":3475,"ikes":3476,"oon":3477,"pical":3478,"Ġver":3479,"Ġtv":3480,"Ġsuck":3481,"Ġbroom":3482,"erc":3483,"Ġcrown":3484,"Ġcalm":3485,"Ġmuse":3486,"Ġgal":3487,"Ġdot":3488,"Ġdoors":3489,"Ġfel":3490,"Ġfashion":3491,"Ġhiding":3492,"Ġaerial":3493,"Ġmane":3494,"long":3495,"oming":3496,"Ġbor":3497,"ashed":3498,"orted":3499,"Ġlimb":3500,"Ġlane":3501,"Ġchin":3502,"Ġnav":3503,"ically":3504,"Ġbee":3505,"Ġsnowcapped":3506,"illed":3507,"Ġcovers":3508,"elion":3509,"Ġridge":3510,"Ġasc":3511,"Ġrel":3512,"Ġcamping":3513,"Ġgown":3514,"Ġheaddress":3515,"ages":3516,"Ġswimmers":3517,"Ġcolour":3518,"Ġvend":3519,"Ġvaul":3520,"Ġuniformed":3521,"Ġperformer":3522,"Ġmotorcyclists":3523,"Ġbra":3524,"Ġadm":3525,"Ġbarn":3526,"Ġbalance":3527,"Ġwheeled":3528,"Ġsweaters":3529,"Ġopening":3530,"Ġlighting":3531,"Ġfiretr":3532,"Ġpointed":3533,"Ġwindows":3534,"Ġcows":3535,"Ġpushed":3536,"gged":3537,"Ġhikes":3538,"Ġworks":3539,"Ġjogs":3540,"Ġmusc":3541,"work":3542,"Ġapart":3543,"Ġpoodles":3544,"Ġstretches":3545,"Ġofficial":3546,"Ġwaterskier":3547,"Ġcheckered":3548,"Ġcards":3549,"Ġfloaties":3550,"Ġposter":3551,"Ġtosses":3552,"Ġgliding":3553,"Ġsilhouetted":3554,"Ġapproaches":3555,"Ġelectron":3556,"Ġdescending":3557,"Ġhandlebars":3558,"Ġrollerskating":3559,"Ġbillboard":3560,"Ġdrawing":3561,"Ġenclosed":3562,"Ġcameras":3563,"Ġindividuals":3564,"Ġgestures":3565,"Ġidentical":3566,"Ġgrowling":3567,"Ġtoilet":3568,"Ġlounge":3569,"Ġfisherman":3570,"Ġesc":3571,"Ġcannon":3572,"Ġtrotting":3573,"Ġbundled":3574,"Ġoriental":3575,"Ġdandelion":3576,"Ġmuseum":3577,"Ġfiretruck":3578,"car":3579,"fo":3580,"lph":3581,"lines":3582,"uch":3583,"ze":3584,"Ġtiny":3585,"Ġticket":3586,"Ġselling":3587,"Ġwades":3588,"Ġpoun":3589,"rop":3590,"Ġcush":3591,"ision":3592,"Ġmel":3593,"Ġmist":3594,"Ġdolph":3595,"Ġfuzz":3596,"labor":3597,"Ġrings":3598,"Ġrally":3599,"Ġstare":3600,"Ġbooks":3601,"ory":3602,"Ġju":3603,"Ġlip":3604,"Ġyawn":3605,"ott":3606,"otard":3607,"icop":3608,"Ġrod":3609,"Ġcooking":3610,"Ġfrolic":3611,"Ġlock":3612,"Ġposs":3613,"Ġpops":3614,"Ġeu":3615,"Ġleotard":3616,"Ġcarts":3617,"Ġlabr":3618,"Ġoffice":3619,"Ġsoaked":3620,"Ġhandles":3621,"Ġgoat":3622,"Ġsec":3623,"Ġseaw":3624,"Ġshoots":3625,"Ġflute":3626,"Ġarch":3627,"Ġparka":3628,"Ġhelicop":3629,"Ġbabies":3630,"Ġarmy":3631,"Ġfram":3632,"Ġsnowboarders":3633,"quo":3634,"Ġpathway":3635,"Ġdang":3636,"Ġdancer":3637,"Ġbarks":3638,"Ġbatman":3639,"Ġcollars":3640,"Ġpaints":3641,"ations":3642,"Ġnighttime":3643,"Ġwheeler":3644,"Ġtrainer":3645,"Ġdive":3646,"Ġexerc":3647,"Ġrailings":3648,"Ġdish":3649,"Ġfurn":3650,"Ġpassen":3651,"Ġumbrellas":3652,"Ġcanoes":3653,"Ġmarker":3654,"Ġgraffitied":3655,"Ġunderwear":3656,"Ġlaptop":3657,"Ġbutter":3658,"Ġchains":3659,"Ġstretch":3660,"Ġtropical":3661,"Ġburning":3662,"Ġpicks":3663,"Ġtwirl":3664,"Ġhardwood":3665,"Ġsummer":3666,"Ġweeds":3667,"Ġclapping":3668,"Ġreflective":3669,"Ġtattooed":3670,"Ġmember":3671,"Ġdribbling":3672,"Ġextre":3673,"Ġribbons":3674,"Ġsquirted":3675,"Ġrelaxes":3676,"Ġitems":3677,"Ġdropping":3678,"Ġchicken":3679,"Ġtrashcan":3680,"Ġbulld":3681,"Ġhusky":3682,"Ġpedestrians":3683,"Ġbridesma":3684,"Ġdemon":3685,"Ġskimpy":3686,"Ġyouth":3687,"Ġfellow":3688,"Ġmaneu":3689,"Ġnavig":3690,"Ġcolourful":3691,"Ġvendor":3692,"Ġcushion":3693,"Ġfuzzy":3694,"Ġhelicopter":3695,"bag":3696,"cot":3697,"eed":3698,"gre":3699,"jured":3700,"oo":3701,"su":3702,"uis":3703,"uss":3704,"inned":3705,"Ġtar":3706,"Ġtumb":3707,"Ġtights":3708,"Ġsell":3709,"Ġwade":3710,"Ġbump":3711,"Ġinjured":3712,"Ġdep":3713,"ara":3714,"ato":3715,"lest":3716,"Ġmass":3717,"Ġgood":3718,"alt":3719,"Ġhy":3720,"Ġham":3721,"Ġhallow":3722,"Ġrust":3723,"Ġmans":3724,"Ġstyle":3725,"Ġtor":3726,"Ġyork":3727,"Ġnap":3728,"Ġbelong":3729,"Ġsnake":3730,"ams":3731,"Ġgras":3732,"Ġcook":3733,"Ġblind":3734,"ston":3735,"Ġoverh":3736,"Ġoverhead":3737,"Ġelabor":3738,"Ġleashed":3739,"Ġheav":3740,"Ġbackstro":3741,"Ġspl":3742,"Ġsporting":3743,"Ġlass":3744,"Ġlacross":3745,"ycling":3746,"Ġreg":3747,"rows":3748,"Ġskateboarders":3749,"rant":3750,"using":3751,"Ġfacial":3752,"Ġflan":3753,"Ġsunlight":3754,"Ġunivers":3755,"Ġfootballer":3756,"Ġscore":3757,"Ġskies":3758,"Ġfloppy":3759,"Ġconf":3760,"Ġcome":3761,"Ġcomm":3762,"Ġkicked":3763,"Ġcostumed":3764,"Ġfireplace":3765,"Ġprogress":3766,"Ġcrack":3767,"Ġbearing":3768,"Ġmarsh":3769,"Ġbottles":3770,"Ġstart":3771,"Ġjoy":3772,"Ġsubmer":3773,"Ġhurdles":3774,"Ġbread":3775,"Ġpitching":3776,"Ġsprays":3777,"Ġtuss":3778,"Ġbunny":3779,"Ġblocking":3780,"Ġflowery":3781,"outs":3782,"Ġbouncy":3783,"Ġfilm":3784,"Ġstretched":3785,"keys":3786,"Ġcasts":3787,"Ġposts":3788,"Ġwakeboarder":3789,"Ġbounding":3790,"Ġzip":3791,"Ġstudio":3792,"Ġnative":3793,"Ġincline":3794,"Ġparasail":3795,"Ġparasailing":3796,"Ġtricycles":3797,"Ġmulticolor":3798,"Ġscrat":3799,"Ġobserves":3800,"Ġdescends":3801,"Ġpeeks":3802,"Ġfolding":3803,"Ġcontainer":3804,"skinned":3805,"Ġpresent":3806,"Ġseagulls":3807,"Ġpizz":3808,"Ġaqua":3809,"Ġcharact":3810,"Ġprodu":3811,"Ġsquee":3812,"Ġchoppy":3813,"Ġbeverage":3814,"Ġcobblest":3815,"Ġincluding":3816,"Ġgallo":3817,"fold":3818,"Ġeurope":3819,"Ġseaweed":3820,"quoise":3821,"Ġbridesmaids":3822,"Ġdemonstr":3823,"Ġtarget":3824,"Ġhalloween":3825,"Ġblindfold":3826,"Ġelaborate":3827,"Ġheavily":3828,"bur":3829,"bul":3830,"bell":3831,"cra":3832,"dion":3833,"drant":3834,"filled":3835,"hite":3836,"ient":3837,"je":3838,"ked":3839,"lled":3840,"ose":3841,"pass":3842,"pain":3843,"spe":3844,"tal":3845,"tur":3846,"tie":3847,"vo":3848,"vision":3849,"wing":3850,"white":3851,"Ġends":3852,"inj":3853,"iner":3854,"inted":3855,"ange":3856,"Ġson":3857,"Ġshed":3858,"Ġsort":3859,"Ġbent":3860,"Ġoll":3861,"iture":3862,"Ġpian":3863,"Ġpries":3864,"Ġpapers":3865,"Ġcans":3866,"ison":3867,"isting":3868,"Ġmitt":3869,"Ġmug":3870,"Ġgn":3871,"Ġgon":3872,"Ġgive":3873,"Ġdomin":3874,"Ġfin":3875,"Ġfiring":3876,"Ġwithin":3877,"Ġstorm":3878,"Ġstones":3879,"Ġbone":3880,"Ġthings":3881,"Ġlion":3882,"Ġshare":3883,"Ġnice":3884,"Ġwatercra":3885,"Ġrolled":3886,"Ġbean":3887,"Ġhops":3888,"Ġhosp":3889,"iler":3890,"Ġlove":3891,"Ġoutc":3892,"Ġpop":3893,"Ġpours":3894,"riers":3895,"Ġgreat":3896,"Ġlear":3897,"Ġheels":3898,"Ġtract":3899,"Ġmoss":3900,"Ġmouse":3901,"Ġrocket":3902,"rents":3903,"Ġspi":3904,"Ġspons":3905,"ycler":3906,"Ġjumpsuit":3907,"Ġsold":3908,"cted":3909,"Ġsidelines":3910,"Ġcats":3911,"Ġshops":3912,"igious":3913,"Ġuncut":3914,"athon":3915,"Ġsnowboards":3916,"Ġparalle":3917,"shund":3918,"phy":3919,"Ġbigger":3920,"Ġdarkened":3921,"enders":3922,"Ġdriven":3923,"Ġambul":3924,"Ġplush":3925,"Ġbackpacker":3926,"Ġphotos":3927,"Ġsprints":3928,"Ġcanal":3929,"Ġcanyon":3930,"Ġnoses":3931,"Ġfirefight":3932,"Ġturquoise":3933,"Ġlibr":3934,"Ġlifting":3935,"Ġlifted":3936,"Ġmarathon":3937,"Ġboxes":3938,"Ġspeak":3939,"Ġoverlooks":3940,"Ġjogg":3941,"ively":3942,"tical":3943,"Ġharnesses":3944,"Ġpauses":3945,"Ġsinger":3946,"cordion":3947,"Ġartific":3948,"Ġcheering":3949,"Ġlogo":3950,"Ġbutton":3951,"Ġsaying":3952,"Ġcarpeted":3953,"Ġbottoms":3954,"Ġowners":3955,"where":3956,"Ġtrophy":3957,"Ġchecking":3958,"Ġmilk":3959,"Ġstrollers":3960,"Ġaccordion":3961,"Ġblurred":3962,"Ġclowns":3963,"Ġgarage":3964,"Ġpractices":3965,"Ġwarmly":3966,"Ġstove":3967,"Ġpiggy":3968,"idential":3969,"Ġpunching":3970,"Ġcarried":3971,"Ġinterview":3972,"Ġtightrope":3973,"wheeler":3974,"Ġchickens":3975,"Ġexamine":3976,"Ġcollege":3977,"Ġreturns":3978,"Ġpumpkins":3979,"Ġeverywhere":3980,"Ġtransport":3981,"Ġquarterback":3982,"Ġinteresting":3983,"Ġoperating":3984,"Ġattention":3985,"Ġtuxedos":3986,"Ġvertical":3987,"Ġborder":3988,"Ġreligious":3989,"Ġelectronic":3990,"Ġdangling":3991,"Ġfurniture":3992,"Ġhydrant":3993,"Ġbelongings":3994,"Ġbackstroke":3995,"Ġlacrosse":3996,"Ġflannel":3997,"Ġuniversity":3998,"Ġpizza":3999,"Ġeuropean":4000,"Ġwatercraft":4001,"Ġhospital":4002,"Ġtractor":4003,"Ġparallel":4004,"Ġambulance":4005,"Ġlibrary":4006,"Ġartificial":4007,"bra":4008,"drop":4009,"eer":4010,"flow":4011,"hib":4012,"iver":4013,"just":4014,"own":4015,"ram":4016,"sion":4017,"thing":4018,"uc":4019,"vent":4020,"vie":4021,"wk":4022,"xing":4023,"zing":4024,"zes":4025,"Ġsund":4026,"Ġsister":4027,"Ġwashing":4028,"Ġbla":4029,"Ġinspe":4030,"itch":4031,"Ġtheater":4032,"Ġpay":4033,"Ġdach":4034,"erch":4035,"Ġcare":4036,"Ġcry":4037,"Ġcute":4038,"Ġcere":4039,"ises":4040,"ata":4041,"aters":4042,"ative":4043,"Ġmustache":4044,"Ġhound":4045,"irrel":4046,"Ġawn":4047,"Ġrif":4048,"Ġrus":4049,"Ġstall":4050,"Ġboston":4051,"eter":4052,"Ġthre":4053,"Ġlim":4054,"Ġchip":4055,"Ġchop":4056,"Ġchunk":4057,"urity":4058,"Ġninj":4059,"Ġpeers":4060,"ards":4061,"icle":4062,"Ġbeak":4063,"ambo":4064,"Ġsnowbank":4065,"Ġcob":4066,"sters":4067,"style":4068,"Ġskele":4069,"Ġskaters":4070,"Ġpolo":4071,"Ġpopping":4072,"rial":4073,"Ġshirted":4074,"Ġoverpass":4075,"Ġfoc":4076,"Ġeg":4077,"Ġhear":4078,"Ġtrump":4079,"Ġtray":4080,"Ġbackdrop":4081,"Ġrag":4082,"Ġmobile":4083,"Ġmovie":4084,"Ġyelling":4085,"Ġherding":4086,"Ġasking":4087,"Ġasph":4088,"Ġrece":4089,"Ġcamps":4090,"Ġmountainous":4091,"Ġsocks":4092,"used":4093,"Ġbicycler":4094,"Ġteles":4095,"Ġhilly":4096,"Ġdrain":4097,"Ġskiiers":4098,"Ġvil":4099,"Ġfencing":4100,"Ġobsc":4101,"Ġperformance":4102,"Ġramps":4103,"Ġdancers":4104,"Ġadjust":4105,"Ġhighway":4106,"aces":4107,"Ġhawa":4108,"Ġbatt":4109,"Ġbatter":4110,"Ġplaced":4111,"Ġballet":4112,"Ġstrapped":4113,"Ġplates":4114,"Ġboards":4115,"Ġguitars":4116,"Ġguitarist":4117,"ustrial":4118,"Ġforested":4119,"Ġcrashes":4120,"Ġpads":4121,"Ġbears":4122,"Ġsleds":4123,"Ġmarble":4124,"Ġexhib":4125,"Ġobstacles":4126,"Ġcorg":4127,"Ġnumbers":4128,"Ġsuburban":4129,"Ġsquatting":4130,"Ġsquirrel":4131,"Ġbreed":4132,"Ġpadded":4133,"Ġparents":4134,"Ġraincoat":4135,"Ġbowls":4136,"Ġraise":4137,"Ġtackles":4138,"Ġevening":4139,"Ġretrieve":4140,"Ġlower":4141,"Ġcontest":4142,"Ġsax":4143,"Ġscenery":4144,"Ġcups":4145,"Ġindustrial":4146,"Ġamongst":4147,"iously":4148,"Ġtrots":4149,"Ġvideot":4150,"Ġguns":4151,"Ġcolla":4152,"Ġchecks":4153,"Ġknife":4154,"Ġpractice":4155,"Ġacro":4156,"Ġtossed":4157,"Ġclad":4158,"Ġexplo":4159,"Ġenter":4160,"Ġdragging":4161,"Ġglider":4162,"Ġextended":4163,"Ġguarding":4164,"Ġdirections":4165,"Ġparticipating":4166,"Ġsquirting":4167,"Ġpotato":4168,"Ġsailboat":4169,"Ġemerging":4170,"Ġspider":4171,"Ġpeeking":4172,"Ġpretending":4173,"Ġrobot":4174,"Ġcroc":4175,"Ġhorizontal":4176,"Ġpinata":4177,"Ġfolded":4178,"Ġcelebrating":4179,"minton":4180,"Ġtiled":4181,"Ġdinner":4182,"Ġtourists":4183,"Ġwindsurfer":4184,"climb":4185,"Ġaiming":4186,"Ġtelephone":4187,"Ġtelevision":4188,"Ġjuggling":4189,"Ġbagpipes":4190,"Ġtravers":4191,"Ġtravels":4192,"Ġlaunches":4193,"Ġsleeveless":4194,"Ġgarbage":4195,"nament":4196,"Ġpatterned":4197,"Ġinteracting":4198,"Ġmagazines":4199,"Ġbadminton":4200,"sticks":4201,"Ġplank":4202,"Ġfresh":4203,"Ġshrub":4204,"Ġbelt":4205,"Ġmuscular":4206,"Ġescal":4207,"Ġjuice":4208,"Ġyawning":4209,"Ġfrolics":4210,"Ġlabrador":4211,"Ġsecurity":4212,"Ġextreme":4213,"Ġbulldog":4214,"green":4215,"Ġsplits":4216,"Ġcommun":4217,"Ġcharacters":4218,"Ġcobblestone":4219,"turned":4220,"Ġpiano":4221,"Ġjogger":4222,"Ġtransportation":4223,"Ġdachshund":4224,"Ġchopsticks":4225,"Ġninja":4226,"Ġskeleton":4227,"Ġasphalt":4228,"Ġhawai":4229,"barrow":4230,"cam":4231,"ded":4232,"dish":4233,"eiling":4234,"for":4235,"gu":4236,"jump":4237,"pie":4238,"pipe":4239,"rings":4240,"sing":4241,"tain":4242,"vel":4243,"Ġuse":4244,"ina":4245,"Ġta":4246,"Ġtet":4247,"Ġted":4248,"Ġtape":4249,"Ġtarp":4250,"Ġsy":4251,"Ġsacks":4252,"Ġbrow":4253,"Ġovers":4254,"Ġpri":4255,"Ġpress":4256,"Ġdy":4257,"Ġditch":4258,"erby":4259,"Ġcong":4260,"Ġcries":4261,"Ġcycling":4262,"Ġceiling":4263,"Ġmin":4264,"Ġmain":4265,"Ġmaro":4266,"Ġgla":4267,"Ġgen":4268,"Ġgas":4269,"Ġfed":4270,"Ġavo":4271,"Ġrack":4272,"ense":4273,"lom":4274,"ida":4275,"Ġbon":4276,"Ġtoo":4277,"ets":4278,"oring":4279,"oned":4280,"Ġjud":4281,"Ġlun":4282,"Ġlush":4283,"Ġshaw":4284,"Ġsharing":4285,"umm":4286,"Ġchalle":4287,"Ġang":4288,"Ġant":4289,"ersaul":4290,"Ġreddish":4291,"Ġromp":4292,"Ġrott":4293,"Ġsnar":4294,"Ġsnack":4295,"Ġsnap":4296,"american":4297,"immed":4298,"iled":4299,"body":4300,"Ġskips":4301,"Ġpokes":4302,"ains":4303,"aining":4304,"Ġeagle":4305,"Ġleag":4306,"Ġheart":4307,"tops":4308,"Ġkitten":4309,"Ġkilt":4310,"Ġbacklit":4311,"Ġmod":4312,"Ġmout":4313,"Ġclings":4314,"Ġspan":4315,"Ġspre":4316,"Ġbuy":4317,"indle":4318,"Ġsurpr":4319,"Ġcamo":4320,"Ġbaseman":4321,"Ġhanding":4322,"Ġhandbag":4323,"Ġseash":4324,"Ġalike":4325,"vest":4326,"usual":4327,"Ġheaded":4328,"Ġarab":4329,"Ġsunsh":4330,"aging":4331,"iped":4332,"Ġtee":4333,"Ġunusual":4334,"ieval":4335,"emen":4336,"Ġvine":4337,"pper":4338,"shaped":4339,"Ġpurses":4340,"Ġperformers":4341,"tered":4342,"Ġtracksuit":4343,"arent":4344,"Ġbrace":4345,"Ġstripe":4346,"Ġhorns":4347,"Ġbats":4348,"Ġcoloring":4349,"Ġcouples":4350,"opy":4351,"Ġdried":4352,"shirts":4353,"Ġstraps":4354,"Ġflapping":4355,"Ġstepping":4356,"Ġskysc":4357,"cope":4358,"ustr":4359,"Ġprop":4360,"Ġtrains":4361,"weiler":4362,"Ġearrings":4363,"Ġmarch":4364,"Ġdistorted":4365,"Ġstarts":4366,"Ġstarring":4367,"Ġembra":4368,"Ġstores":4369,"Ġboxers":4370,"Ġspecial":4371,"born":4372,"Ġoverlook":4373,"Ġdisk":4374,"Ġkayakers":4375,"Ġwords":4376,"Ġveget":4377,"Ġsteering":4378,"Ġcartwheel":4379,"rait":4380,"Ġtrucks":4381,"Ġcaut":4382,"hoops":4383,"sely":4384,"Ġpaperwork":4385,"Ġbucking":4386,"Ġblocked":4387,"Ġpatches":4388,"Ġclearing":4389,"Ġcreating":4390,"Ġnewborn":4391,"Ġmusician":4392,"Ġstatues":4393,"Ġsailing":4394,"Ġbounces":4395,"Ġmonster":4396,"Ġfetches":4397,"Ġcowboys":4398,"Ġwrist":4399,"Ġwritten":4400,"Ġforehead":4401,"Ġseattle":4402,"Ġdrummer":4403,"Ġfairy":4404,"Ġfairground":4405,"Ġmarketplace":4406,"Ġpets":4407,"Ġcutting":4408,"wheeled":4409,"Ġmedieval":4410,"Ġoutstre":4411,"Ġtowed":4412,"Ġclaus":4413,"Ġdragon":4414,"Ġreflecting":4415,"Ġcircuit":4416,"Ġhotel":4417,"Ġshovels":4418,"Ġeyeb":4419,"Ġserve":4420,"Ġserious":4421,"Ġpolicemen":4422,"Ġpotted":4423,"Ġlistens":4424,"inished":4425,"Ġflorida":4426,"Ġcontaining":4427,"Ġexamining":4428,"Ġapples":4429,"Ġfeathers":4430,"Ġresidential":4431,"Ġbagpipe":4432,"Ġlocated":4433,"Ġmeeting":4434,"Ġmagazine":4435,"Ġsuper":4436,"Ġdalmat":4437,"Ġdalmation":4438,"Ġcleaning":4439,"Ġfeathered":4440,"Ġslalom":4441,"Ġpyram":4442,"Ġwatermelon":4443,"Ġsucking":4444,"Ġascending":4445,"Ġadmire":4446,"Ġpounces":4447,"Ġpassengers":4448,"Ġrusty":4449,"Ġsubmerged":4450,"Ġtussle":4451,"Ġgnaw":4452,"Ġdomino":4453,"Ġbeanie":4454,"Ġoutcro":4455,"Ġceremon":4456,"Ġtrumpet":4457,"Ġcampsite":4458,"Ġtelescope":4459,"Ġvillage":4460,"Ġexhibit":4461,"Ġsaxo":4462,"Ġacrobat":4463,"Ġescalator":4464,"Ġhawaiian":4465,"camera":4466,"Ġteddy":4467,"Ġmaroon":4468,"Ġchalleng":4469,"Ġsurprised":4470,"Ġseashore":4471,"Ġskyscrap":4472,"Ġembracing":4473,"Ġpyramid":4474,"ael":4475,"bling":4476,"bones":4477,"cc":4478,"dled":4479,"ex":4480,"fly":4481,"field":4482,"iel":4483,"ives":4484,"iving":4485,"ilor":4486,"kle":4487,"lies":4488,"lined":4489,"ming":4490,"pers":4491,"ris":4492,"son":4493,"sure":4494,"tter":4495,"vol":4496,"wear":4497,"Ġ5":4498,"Ġel":4499,"Ġill":4500,"Ġtil":4501,"Ġtest":4502,"Ġtrench":4503,"Ġsar":4504,"Ġswo":4505,"Ġsear":4506,"Ġsite":4507,"Ġsale":4508,"Ġwo":4509,"Ġbale":4510,"Ġbitten":4511,"Ġox":4512,"Ġoar":4513,"Ġocc":4514,"Ġinvol":4515,"reg":4516,"Ġpas":4517,"Ġpail":4518,"Ġpuffy":4519,"Ġdj":4520,"Ġcable":4521,"ising":4522,"lee":4523,"Ġmick":4524,"Ġfist":4525,"Ġfrench":4526,"laces":4527,"Ġhud":4528,"Ġhides":4529,"Ġaer":4530,"Ġaband":4531,"ided":4532,"Ġtooth":4533,"asium":4534,"Ġplayful":4535,"Ġjar":4536,"Ġjag":4537,"Ġthick":4538,"Ġlining":4539,"Ġshades":4540,"Ġchubby":4541,"Ġankle":4542,"pled":4543,"ples":4544,"plets":4545,"roud":4546,"itty":4547,"Ġnood":4548,"Ġpeach":4549,"Ġpebb":4550,"Ġpeaks":4551,"Ġwatery":4552,"ict":4553,"Ġberet":4554,"Ġgrad":4555,"Ġgrins":4556,"Ġhopping":4557,"Ġcop":4558,"Ġlob":4559,"Ġsmelling":4560,"store":4561,"Ġoverwe":4562,"Ġlens":4563,"Ġlett":4564,"Ġhell":4565,"ksh":4566,"Ġupward":4567,"Ġtrailing":4568,"Ġkitty":4569,"Ġcarving":4570,"Ġcarrier":4571,"Ġmoon":4572,"seen":4573,"apes":4574,"Ġairport":4575,"Ġsomthing":4576,"Ġsomersaul":4577,"Ġspout":4578,"Ġspoon":4579,"Ġbug":4580,"Ġbuggy":4581,"Ġlam":4582,"Ġlav":4583,"Ġlamp":4584,"oling":4585,"icker":4586,"Ġresc":4587,"Ġreally":4588,"Ġrecent":4589,"Ġneed":4590,"rance":4591,"Ġsoaking":4592,"Ġsoaring":4593,"Ġgoof":4594,"Ġsees":4595,"Ġseem":4596,"Ġseating":4597,"ills":4598,"Ġteaching":4599,"Ġunf":4600,"Ġunseen":4601,"Ġhello":4602,"Ġbloss":4603,"emade":4604,"Ġvict":4605,"Ġbaskets":4606,"Ġhaircut":4607,"Ġpurch":4608,"Ġpursu":4609,"Ġcond":4610,"Ġbrindle":4611,"phard":4612,"Ġclothed":4613,"Ġtreads":4614,"Ġshephard":4615,"Ġstriking":4616,"Ġrival":4617,"ender":4618,"Ġdefl":4619,"Ġbatting":4620,"cess":4621,"Ġstrad":4622,"Ġcolorfully":4623,"Ġbackpacking":4624,"Ġcliffs":4625,"Ġspring":4626,"Ġcrossbones":4627,"Ġcanv":4628,"Ġskyd":4629,"Ġturkeys":4630,"Ġwheelbarrow":4631,"Ġbridal":4632,"Ġcrash":4633,"Ġcraft":4634,"Ġpointy":4635,"Ġteens":4636,"Ġeyed":4637,"Ġexcept":4638,"Ġrails":4639,"Ġstorefront":4640,"Ġcorr":4641,"ooth":4642,"Ġmaterial":4643,"Ġtongues":4644,"Ġorder":4645,"Ġcompetit":4646,"Ġsteers":4647,"Ġcartwhe":4648,"Ġstunts":4649,"Ġhorsesho":4650,"Ġslopes":4651,"Ġbookstore":4652,"Ġformally":4653,"Ġevil":4654,"Ġbanners":4655,"Ġcigarettes":4656,"Ġgathers":4657,"Ġcrev":4658,"Ġcanoeing":4659,"Ġnewly":4660,"Ġmex":4661,"Ġpieces":4662,"bands":4663,"Ġhomemade":4664,"Ġwrites":4665,"Ġdigital":4666,"Ġspeeding":4667,"Ġbutt":4668,"unges":4669,"Ġpacked":4670,"Ġcolum":4671,"Ġchecked":4672,"Ġdirect":4673,"Ġcompan":4674,"Ġtwin":4675,"Ġpray":4676,"Ġprinted":4677,"Ġmotorbikes":4678,"Ġpiercing":4679,"Ġbegging":4680,"Ġbeginning":4681,"Ġsumm":4682,"Ġathletes":4683,"Ġsleeves":4684,"Ġentert":4685,"Ġmachines":4686,"Ġparasails":4687,"Ġparticipates":4688,"Ġdroplets":4689,"Ġbouquet":4690,"Ġobserving":4691,"Ġgymnasium":4692,"Ġpretend":4693,"Ġtags":4694,"Ġsparkler":4695,"Ġflaming":4696,"Ġattacking":4697,"Ġcastle":4698,"Ġfestive":4699,"Ġnumer":4700,"Ġgymnastics":4701,"Ġenclosure":4702,"Ġflee":4703,"Ġjuggles":4704,"Ġresort":4705,"Ġrecord":4706,"Ġdollar":4707,"Ġstruggle":4708,"Ġpattern":4709,"Ġinteract":4710,"Ġpumpkin":4711,"Ġexpressions":4712,"Ġsuperman":4713,"Ġassist":4714,"Ġparachuting":4715,"Ġelevator":4716,"Ġmelting":4717,"Ġlipstick":4718,"Ġpossession":4719,"Ġframed":4720,"Ġbutterfly":4721,"Ġchainsaw":4722,"Ġoverhang":4723,"Ġlasso":4724,"Ġgalloping":4725,"Ġpriest":4726,"Ġsponsored":4727,"Ġsoldier":4728,"Ġfirefighter":4729,"Ġawning":4730,"Ġcorgi":4731,"Ġcommunity":4732,"piece":4733,"Ġcongreg":4734,"Ġlunch":4735,"Ġleague":4736,"Ġoutstreached":4737,"Ġoutcropping":4738,"Ġceremony":4739,"Ġchallenging":4740,"Ġmickey":4741,"Ġjagged":4742,"Ġoverweight":4743,"Ġletters":4744,"Ġrescue":4745,"Ġrecently":4746,"Ġdeflated":4747,"cier":4748,"flo":4749,"hift":4750,"iet":4751,"iod":4752,"iron":4753,"ique":4754,"lican":4755,"lish":4756,"lider":4757,"noon":4758,"olo":4759,"pan":4760,"ters":4761,"uation":4762,"vy":4763,"water":4764,"zag":4765,"Ġ3":4766,"Ġ4":4767,"Ġif":4768,"Ġig":4769,"inting":4770,"Ġti":4771,"Ġtap":4772,"Ġtails":4773,"anter":4774,"Ġsal":4775,"Ġsol":4776,"Ġsab":4777,"Ġsong":4778,"Ġsound":4779,"Ġsails":4780,"Ġself":4781,"Ġbass":4782,"Ġbark":4783,"Ġodd":4784,"Ġinse":4785,"Ġinvest":4786,"rent":4787,"Ġpud":4788,"Ġpens":4789,"Ġdren":4790,"eric":4791,"erness":4792,"robe":4793,"Ġcot":4794,"Ġcab":4795,"Ġcrest":4796,"Ġcust":4797,"isper":4798,"Ġming":4799,"Ġmor":4800,"Ġmap":4801,"Ġmich":4802,"Ġmuch":4803,"Ġmerch":4804,"Ġgot":4805,"Ġgrown":4806,"Ġgam":4807,"Ġgig":4808,"Ġfit":4809,"Ġfrown":4810,"Ġferry":4811,"Ġfilling":4812,"lad":4813,"Ġhun":4814,"Ġhap":4815,"Ġhip":4816,"Ġab":4817,"Ġawa":4818,"Ġru":4819,"enian":4820,"Ġstack":4821,"Ġwhisper":4822,"esus":4823,"Ġtoe":4824,"etti":4825,"Ġplayhouse":4826,"Ġjesus":4827,"Ġthan":4828,"Ġlime":4829,"Ġlunges":4830,"chan":4831,"Ġshines":4832,"Ġshining":4833,"Ġshiny":4834,"Ġchange":4835,"Ġange":4836,"Ġatm":4837,"Ġnud":4838,"Ġpelican":4839,"Ġwaterway":4840,"ices":4841,"vering":4842,"Ġbecom":4843,"Ġbeyon":4844,"aman":4845,"aming":4846,"Ġgraz":4847,"imon":4848,"Ġsnowman":4849,"ils":4850,"elled":4851,"ady":4852,"Ġsmooth":4853,"stal":4854,"stri":4855,"ried":4856,"Ġswamp":4857,"Ġswans":4858,"Ġgreet":4859,"Ġfog":4860,"Ġeas":4861,"Ġbib":4862,"Ġupper":4863,"Ġkind":4864,"Ġkang":4865,"Ġkimon":4866,"Ġbackward":4867,"Ġrapp":4868,"Ġrabb":4869,"Ġfields":4870,"Ġmoustache":4871,"Ġrocking":4872,"Ġgreenery":4873,"Ġgreenhouse":4874,"Ġstrewn":4875,"Ġspir":4876,"Ġbudd":4877,"Ġbuilt":4878,"Ġrec":4879,"Ġremo":4880,"Ġrecl":4881,"Ġcamcor":4882,"Ġoffering":4883,"Ġmountaineer":4884,"Ġsoars":4885,"Ġsidecar":4886,"Ġgoats":4887,"Ġgoose":4888,"Ġsequ":4889,"Ġseeds":4890,"illar":4891,"ures":4892,"Ġcrowds":4893,"Ġsling":4894,"ipped":4895,"Ġteaches":4896,"Ġunion":4897,"Ġunique":4898,"Ġblood":4899,"Ġfootballers":4900,"Ġscant":4901,"dola":4902,"dogs":4903,"Ġhairy":4904,"Ġmotorized":4905,"Ġarmenian":4906,"Ġfencers":4907,"Ġfrying":4908,"Ġparag":4909,"Ġperf":4910,"Ġperched":4911,"Ġperiod":4912,"Ġflood":4913,"quid":4914,"Ġguide":4915,"Ġcomf":4916,"Ġtrek":4917,"Ġthemed":4918,"Ġstripped":4919,"Ġcheers":4920,"Ġbattle":4921,"Ġwets":4922,"Ġcollide":4923,"Ġdrift":4924,"Ġstrap":4925,"Ġstrings":4926,"Ġflaps":4927,"Ġwhose":4928,"Ġcanopy":4929,"Ġwrestles":4930,"Ġfireman":4931,"Ġfeeds":4932,"ational":4933,"cour":4934,"Ġliquid":4935,"uffs":4936,"Ġsurfboarder":4937,"Ġener":4938,"Ġpulley":4939,"Ġtrails":4940,"Ġcowgirl":4941,"Ġearphones":4942,"Ġearring":4943,"Ġdiaper":4944,"Ġflipped":4945,"Ġcurtain":4946,"Ġcurrent":4947,"Ġcords":4948,"Ġdesign":4949,"Ġretre":4950,"Ġworld":4951,"Ġmascot":4952,"Ġharbor":4953,"Ġmakeshift":4954,"Ġsteam":4955,"Ġcellphones":4956,"Ġused":4957,"Ġsquats":4958,"flight":4959,"Ġbreaks":4960,"Ġprepare":4961,"Ġrainy":4962,"Ġbowler":4963,"Ġwaterfalls":4964,"Ġhooping":4965,"brush":4966,"Ġterriers":4967,"Ġcreature":4968,"Ġquad":4969,"Ġcontroll":4970,"izing":4971,"Ġpaintball":4972,"Ġmonitor":4973,"Ġinstruct":4974,"Ġspotlight":4975,"Ġhalter":4976,"Ġbathrobe":4977,"Ġcutout":4978,"Ġdunes":4979,"Ġdunking":4980,"deep":4981,"Ġtwisting":4982,"Ġpierced":4983,"Ġposters":4984,"ocide":4985,"Ġnewspapers":4986,"Ġformations":4987,"Ġscreams":4988,"Ġrubs":4989,"Ġentrance":4990,"Ġprofile":4991,"Ġcircular":4992,"Ġglides":4993,"Ġnature":4994,"Ġguards":4995,"Ġcomputers":4996,"Ġnote":4997,"Ġstrawber":4998,"Ġprotect":4999}